#version: 0.2
e r
t h
Ġ a
i n
a l
Ġ o
Ġ th
Ġth e
Ġo f
o r
o n
n d
t er
l e
a r
Ġ s
e s
e n
Ġa nd
t i
Ġ p
r a
Ġ A
i s
Ġ c
u s
t o
u r
Ġ f
Ġ b
l a
Ġ m
Ġ in
e d
i or
i c
r o
r e
ti on
i t
h e
en t
o s
Ġ C
l i
Ġ T
Ġ d
a c
v e
h a
Ġ to
ra n
i l
e c
a n
in g
Ġ n
t e
u l
Ġ (
r i
a s
i al
u m
u p
l y
Ġ L
ter ior
g h
ĠA n
i d
a m
Ġ t
Ġ W
a t
ha p
er ior
o m
Ġ w
ar t
ĠW il
hap ter
Ġ >
Ġ -
o t
Ġ D
v er
Ġa n
Ġ "
Ġ e
Ġ M
Ġa r
c h
Ġ is
o p
Ġ re
Ġ 1
c le
d i
in s
ĠL i
e l
to m
ti c
ent s
Ġs up
p p
gh t
n e
on t
a b
Ġn er
us cle
c t
Ġ v
Ġ F
ri ght
Ġ l
or s
a tom
ul ar
Ġ g
a d
Ġ B
Ġ E
e p
ar y
ab le
ter al
Ġ la
T he
ĠT he
atom y
os terior
Ġ S
e m
Ġ G
ĠA r
Ġ li
in e
al le
ro m
ĠA t
Ġm uscle
2 0
Ġar ter
in c
u th
la s
es s
' s
ran t
Ġ Ã
g ur
i a
ĠAn atomy
ĠG rant
20 0
Ġ P
u n
di tion
Ġner ve
ĠAt las
ec t
Ġ1 2
i b
u b
in al
i on
ont ents
Ġ &
ot t
o us
o w
am s
op y
k ins
alle y
li ams
ĠD alley
C hapter
ĠWil kins
ĠWil liams
ĠT able
th ur
ĠA gur
ĠLi pp
inc ott
ĠLipp incott
ĠC hapter
ĠE dition
uth ors
A uthors
Â ©
ĠAn ne
ĠAr thur
. ;
C opy
T it
ĠÃ Ĥ
200 9
Copy right
Tit le
ĠC ontents
o l
P art
Ġf or
f erior
e t
Ġs p
g e
Ġf rom
s e
ter n
Ġa re
Ġa s
Ġ le
th e
m p
Ġp osterior
Ġe x
m b
a tion
â Ĥ
âĤ ¬
Ġ j
I n
Ġm a
Ġan terior
o c
Ġm ed
v es
ec tion
o in
o d
Ġp ro
Ġsup erior
Ġ he
i th
v ic
t r
Ġa t
Ã ¢
Ġarter y
al l
Ġla teral
le x
â Ģ
âĤ¬ âĢ
Ġ h
a p
u t
Ġin ferior
i r
u ct
g am
Ġb y
tern al
Ġd is
oin t
Ġ ve
ran ch
t al
m ent
Ġw ith
Ġo r
on g
ac e
Ġd i
o id
ac h
Ġ U
r al
it y
e ep
v is
ro u
Ġc om
Ġ it
Ġo n
b d
Ġ r
c e
e en
f t
Ġli gam
ur f
ĠLi mb
on e
âĤ¬âĢ ľ
i m
a te
Ġ 5
Ġ 2
Ġb ranch
Ġmuscle s
Ġj oint
Ġmed ial
Ġp art
ran s
Ġp er
Ġ ha
te b
a nd
Ġw h
p h
ur e
f ic
p ect
te nd
Ġ 6
er e
er s
or al
as s
i es
en s
Ġ H
Ġ 7
bd om
l o
urf ace
rans ver
Ġc a
ver teb
Ġ 3
ĠT h
or d
ary n
as c
Ġner ves
ow er
el vis
Ġle ft
rou gh
Ġf ib
s s
u c
Ġc ar
o ur
o g
u la
a x
g ion
u e
um b
Ġas pect
ransver se
y mp
Ġs c
o v
Ġin ter
y s
c ess
Ġa l
os s
ic al
) .
a g
Ġ In
on s
it al
or on
Ġligam ent
a tic
id e
Ġth rough
n er
Ġsup p
i p
t ra
ur es
i li
Ġd eep
ec k
fic ial
m on
Ġ I
er ficial
il l
Ġhe ad
Ġ ra
et w
Ġs ub
Ġf em
ine um
an g
an e
Ġre gion
e ar
p er
s ection
Ġ V
Ġw all
Ġ N
Ġth at
etw een
u d
Ġ R
Ġ right
tion s
Ġ 4
Ġ verteb
o f
Ġp al
asc ia
Ġve ins
f or
Ġ ti
Ġin to
Ġp ass
ri b
t s
al e
Ġc an
t es
Ġfor m
s t
el s
Ġ ro
nd s
t ach
in a
Ġb etween
Ġcom p
at ed
al ly
or ac
Ġve in
ĠH e
Ġs urface
Ġc ont
Ġf ascia
la teral
c er
Ġs ide
or ax
c c
Ġr es
pp er
Ġp ar
Ġb e
tr uct
ic h
ess els
ĠA bdom
ĠU pper
or t
ĠHe ad
Ġdi g
or y
Ġca v
d le
up erior
ver s
C N
Ġs ection
r ic
x im
ĠL ower
Ġbranch es
n i
Ġm id
ge al
Ġo b
el vic
Ġarter ies
Ġ O
Ġ 8
Ġc on
ĠP er
m ents
Ġ tend
em b
Ġf lex
i an
on es
Ġc ol
Ġpro cess
en ter
ĠAbdom en
i g
y g
ac k
Ġv essels
os tal
Ġl ong
a in
is t
emb ran
) ,
Ġ k
Ġre m
Ġma y
Ġit s
ĠTh orax
R I
u nd
vic al
h aryn
ra t
Ġwh ich
I I
ra ch
as t
Ġin ternal
Ġt ra
at es
ner v
lex us
ane ous
Ġ ,
ĠM RI
ĠP elvis
r ess
s o
Ġt w
truct ures
us e
ut aneous
og ra
ib ular
lo od
oss a
Ġp la
f er
Ġf ac
os e
Ġs k
Ġb one
ill ary
Ġa c
Ġs h
Ġc er
ov ed
Ġfib ers
in us
Ġf ossa
ĠPer ineum
c tion
Ġg la
Ġsupp ly
Ġs ac
ve l
Ġ ili
Ġp lexus
orac ic
Ġs e
vers ity
Ġ te
ed ial
Ġat tach
ni versity
Ġtw o
it e
Ġcav ity
Ġex ternal
ĠU niversity
o ve
q u
r es
Ġo cc
Ġd ra
Ġd uct
Ġg re
Ġsp inal
Ġs inus
ti s
o ot
is cer
os t
Ġsup erficial
Ġs t
Ġar ch
g in
Ġm embran
Ġn eck
t ed
on d
d d
o ti
p al
he a
te m
tic ular
Ġdis section
ran ial
ot or
Ġdig it
el l
ad a
the tic
n ar
r on
s p
Ġmid dle
Ġcer vical
Ġc ord
re e
Ġla y
Ġli mb
our tes
for m
ourtes y
ur ing
a teral
u inal
Ġt ri
Ġcom mon
ĠC an
as e
ib le
Ġres ul
Ġrem oved
Ġth is
ur s
Ġt ub
Ġre ct
l ow
y n
Ġa x
tr ic
ord er
oron to
ĠCan ada
i gh
Ġa bdom
e w
ĠT oronto
umb ar
nerv ation
Ġp elvis
h y
Ġ us
Ġs ep
Ġp elvic
om p
uscle s
Ġti b
oti d
Ġ up
ĠB ack
ere b
Ġverteb ra
Ġ ul
Ġb een
ymp a
xim al
Ġ rib
Ġb o
Ġin f
Ġv en
ang li
l u
Ġth oracic
Ġs tructures
Ġc ap
Ġb order
Ġverteb ral
ympa thetic
Ġ un
Ġb lood
Ġd ors
up erficial
Ġcan al
Ġf oot
Ġb ec
Ġin c
p e
Ġligam ents
Ġha s
i um
ĠT ransverse
Ġd e
o b
q ue
ti la
um er
oc c
Ġdis tal
Ġcomp art
Ġsk in
a use
c ostal
Ġb ones
os is
am en
Ġt ransverse
ct ed
od y
Ġfac ial
a ter
Ġp ul
Ġmembran e
T able
m ar
t ens
Ġb rach
ent ric
u ally
la vic
ĠC ourtesy
A n
Ġan atomy
Ġre la
g uinal
i ew
u le
Ġha ve
r un
y e
at or
ti ve
us c
Ġn ot
Ġv iscer
ogra ph
ys tem
Ġo p
Ġg angli
Ġsc ap
e at
g es
ro ss
Ġt run
Ġex p
Ġlay er
en ing
ĠS urface
Ġtend on
Ġili ac
Ġtrun k
i f
Ġf ol
Ġd uring
Ġh y
ĠMRI s
ar s
Ġc o
Ġcar tila
Ġup per
h al
j or
z yg
Ġth igh
nd ing
Ġp haryn
Ġn od
ly mp
ine al
Ġob li
t ing
Ġ )
v id
es ce
Ġl aryn
Ġro t
ron ch
th er
Ġp or
Ġe ye
and ibular
ip ital
ĠN eck
Ġflex or
u al
u ter
er m
Ġs ens
Ġb ody
Ġm et
ne e
mp oral
Ġhe art
i z
Ġ J
ac es
Ġli es
Ġha nd
Ġa pp
ra g
Ġc ereb
he m
ĠD r
Ġre f
ep s
un g
Ġfor amen
Ġc l
it one
ri m
Ġex tend
in u
Ġs ystem
is section
Ġn as
k le
Ġp ect
Ġre t
Ġl ower
Ġma jor
Ġpro ximal
Ġjoint s
ear m
Ġgre ater
1 2
d ial
e x
h en
Ġa d
Ġs o
ir d
ymp an
Ġus ually
a y
i tion
al c
Ġs m
Ġper ineum
Ġro ot
u ch
Ġs it
en al
Ġm ale
an c
Ġar m
Ġma nd
ort a
Ġgla nd
hy oid
Ġobli que
i le
i ght
y ro
Ġ enter
Ġ lymp
la v
at ine
Ġal so
mon ary
p i
in ous
Ġl ine
ment al
Ġper ineal
Ġsupp li
Ġk nee
a ge
e nd
f f
Ġ ure
an s
Ġlateral ly
Ġor b
lo or
Ġfem ur
ang le
Ġtub er
Ġvertebra e
lu te
Ġnod es
s er
u ra
Ġp os
ha tic
om e
ĠD eep
di ograph
Ġv ag
Ġinter costal
p osterior
Ġin guinal
ĠM uscles
tic ula
Ġpass es
Ġse g
hea th
Ġ en
Ġc h
Ġc ons
ĠD issection
Ġanterior ly
Ġra m
ina ge
alc ane
i v
l ar
n t
Ġcompart ment
c ap
Ġo ver
le n
Ġm es
Ġsub c
Ġfem oral
Ġ ter
Ġo ri
le s
as tric
Ġan kle
ĠP osterior
Ġmed ian
Ġcar otid
Ġabdom inal
Ġul nar
i tis
l oss
o lateral
Ġb urs
la dd
Ġm o
Ġd ia
Ġfor earm
rou nd
1 0
t en
Ġth ree
Ġth ird
Ġin j
Ġsp ec
Ġscap ula
rag m
ladd er
u cle
Ġb re
ĠM ed
Ġl umbar
ect ed
Ġex tens
Ġwh en
nt ar
c ed
l ite
Ġ uter
Ġa orta
Ġs heath
Ġp re
to id
Ġb ronch
op lite
Ġl ung
Ġg en
1 9
en is
ra ct
Ġc ranial
il la
ĠS uperficial
Ġle vel
Ġhe m
ong ue
Ġti ss
An terior
Ġpect oral
yro id
L ateral
S uperior
i us
i ve
l oc
t um
Ġa p
Ġc oron
as tom
Ġe ach
Ġla b
un ction
verteb ral
Ġal ong
Ġprocess es
o th
s ule
Ġ es
Ġthe ir
ur al
Ġb ut
Ġm ost
Ġm otor
os se
Ġd esce
an terior
Ġar is
Ġar ticular
Ġsuperior ly
one ur
Ġdra inage
Ġtri angle
i mp
o te
Å ĵ
ti b
ha n
Ġt al
âĤ¬âĢ ¢
ir c
Ġpart s
Ġven ous
1 1
g ular
ter yg
ro w
re as
Ġle g
Ġwh ere
ĠN er
ars al
Ġsm all
o u
ra in
Ġf our
ro us
Ġan g
Ġlong us
zyg os
a k
m ed
s uperior
Ġ .
Ġ 9
Ġ X
Ġo ne
Ġs tern
us tra
la n
Ġg lute
ĠAr ter
Ġra dial
Ġbec ause
Ġgangli on
Ġburs a
h ip
i ast
on y
ar e
ar pal
Ġc or
Ġf loor
Ġdi re
ate l
yn ov
e le
t u
Ġc ross
Ġb ase
ran ium
ĠE x
vis ion
Ġfem ale
ĠR a
rib u
Ġsens ory
ympan ic
e th
r ist
Ġthe se
Ġp ub
Ġp ain
Ġm in
ĠC oron
Ġn ucle
om atic
Ġan al
ch le
ont al
Ġsp ine
Ġposterior ly
Ġh umer
Ġinferior ly
Ġpal mar
Ġsh ow
Ġtib ial
Ġcap sule
Ġsit u
Ġmand ible
Ġmo uth
E x
P osterior
Ġ ed
Ġa b
le cted
Ġt ongue
op haryn
Ġsp ace
In ferior
ir st
im en
ph ragm
Ġcont inu
Ġbrach ial
Ġfol d
Ġap oneur
ynov ial
l ud
m s
u od
ar di
Ġc utaneous
Ġm ove
Ġe nd
Ġpla ntar
lavic ular
oplite al
g em
ar ter
Ġs er
ic ular
op ha
Ġv entric
Ġat ri
ag ing
tions hip
rat us
Ġtiss ue
3 3
l in
m oid
Ġ Ċ
en ce
Ġp i
Ġm usc
Ġg ro
Ġex c
Ġmedial ly
Ġtra c
Ġdors al
Ġpul monary
p la
or e
Ġs ympathetic
at ing
Ġe l
Ġv ia
Ġl oc
Ġma in
urf aces
tach ment
enter ic
Ġax illary
1 7
c tions
d uc
p ro
r um
or um
Ġs ur
is ts
ac t
ing s
id ne
di es
Ġma x
our se
ill ustra
Ġra di
Ġdigit s
. ,
1 3
2 7
M edial
m andibular
in ter
in ferior
us t
Ġm ar
ro c
an ce
ul um
Ġh al
Ġgla nds
eat ures
Ġram i
1 5
c hem
p ar
p os
p og
Ġp teryg
li d
Ġsup ra
Ġv al
Ġfib ular
Ġinter osse
Ġresul ts
yn ap
Ġrib s
ĠRa diograph
4 0
d er
s ub
s cap
Ġs urfaces
es tib
Ġp le
li gam
Ġn ear
Ġw as
Ġan astom
Ġre ce
Ġl ob
ĠÃ ¢
ia tic
ol ar
Ġte mporal
Ġsep ar
Ġviscer al
Ġnas al
ĠCoron al
2 3
p atic
v iew
Ġ imp
ar d
Ġin nervation
Ġe p
Ġar ticula
ation s
Ġdis c
Ġwith in
ĠR e
rat or
ress ion
Ġsep tum
occ y
Ġcartila ge
Ġspec imen
Ġaponeur osis
1 6
4 8
i x
p s
p inal
u gular
w ay
Ġf irst
Ġb ic
ing ual
ĠL ateral
Ġv iew
et al
ranch es
ys is
ili ary
Ġk idne
vel op
ond y
dd uct
Ġpharyn x
Ġsuppli es
Ġdia phragm
tu rator
ribu tion
Ġhumer us
) ;
4 9
T h
j ac
Ġp anc
Ġin d
Ġw e
un ic
ical ly
Ġform s
Ġgre at
ĠNer ves
ynap tic
Ġ illustra
Ġa cc
is s
Ġn e
ia te
Ġper itone
ĠTh is
Ġrect us
Ġglute al
1 8
2 9
3 0
b ow
i ves
m unic
o ul
Ġthe y
ter olateral
le v
Ġc alcane
ĠAn terior
Ġare a
lex es
Ġdi vid
Ġform ed
Ġtend ons
Ġco ver
Ġure th
Ġmes enteric
Ġes opha
chle ar
2 4
3 6
c a
l ic
or tic
Ġf at
Ġb ack
Ġm uc
Ġn ose
ri gin
Ġw rist
Ġ1 9
inc ter
Ġas s
Ġdi vision
ass es
ss er
Ġcol um
Ġte eth
hal an
Ġlymp h
lav ian
Ġtuber cle
Ġcoron ary
2 5
f fer
g us
Ġ im
Ġthe n
Ġp atel
Ġc ut
Ġc ostal
Ġf ract
Ġb ul
Ġb ladder
it s
os ed
an y
at us
Ġe ar
Ġre fer
Ġl ar
ĠB ones
Ġli ver
Ġca us
uc tion
ax ial
Ġsc iatic
Ġcol on
lavic le
Ġviscer a
ardi um
Ġhal f
scap ular
4 5
a ins
c es
k e
al p
Ġof ten
or m
or is
en ti
Ġp opliteal
Ġc irc
Ġb as
ic k
ent ral
os es
Ġd o
ĠL ymp
Ġre c
em ale
ĠAt tachment
Ġh ip
Ġresul t
Ġinc lud
Ġlaryn x
Ġinj ur
Ġnucle us
Ġcolum n
2 6
a e
g n
m in
o ut
t ransverse
Ġ qu
Ġa ur
Ġa round
Ġth yroid
Ġm y
re m
an t
as ympathetic
Ġg ra
un n
bd uct
cess ory
Ġsection s
Ġlaryn geal
Ġref lected
Ġmin or
4 4
5 5
O rigin
e g
i etal
al atine
ul l
ri form
alle d
Ġhe patic
ate ly
Ġdigit orum
Ġmet ac
jac ent
3 7
A r
g ra
p le
Ġ y
Ġ ur
th es
in um
Ġs em
es t
Ġp a
Ġp enis
Ġc lavicle
re t
Ġd em
at arsal
ors al
ĠS er
ĠS uperior
Ġj ugular
Ġpro st
Ġsinus es
Ġtib ia
Ġbrach i
Ġextend s
Ġextens or
Ġang le
iast inum
Ġtrac hea
Ġinterosse ous
Ġbic eps
2 2
4 6
P asses
p ec
r ontal
v ol
re ad
ec ause
ab d
ep t
Ġsp h
ner ve
rach ial
Ġsac ro
Ġrect um
Ġcap itis
Ġde velop
Ġcereb ral
Ġorb it
uod en
Ġel bow
Ġmax illary
ligam ent
Ġkidne y
2 8
3 5
3 9
i lateral
i ogra
v ator
Ġo ther
Ġs ec
Ġs ome
us ion
Ġb el
as toid
up ra
Ġla c
Ġli e
un s
Ġpass ing
Ġocc ipital
Ġinf ra
entric ular
Ġpos ition
Ġventric le
Ġsph incter
1 4
3 4
6 6
a pp
c omp
f rom
h umer
i gur
j oint
m us
w all
Ġ ).
ro s
it tal
ĠC N
Ġt ympanic
ver view
Ġv ar
Ġv estib
Ġper ic
lo hyoid
Ġfib rous
umb il
Ġal l
ag ittal
ili ac
ĠI t
Ġpal m
Ġcont ra
occ ipital
Ġpor tal
Ġeye lid
Ġapp ro
Ġuter us
ffer ent
ĠLymp hatic
uoden um
3 8
5 0
b all
f lex
i ti
t y
w ith
er al
le d
is ed
is tal
Ġc alled
ur r
Ġm alle
Ġg len
et ab
tr ong
Ġor g
Ġcar pal
ag es
ĠI m
Ġpar ietal
Ġocc urs
Ġbo dies
pe z
erm atom
Ġsubc lavian
ĠArter ies
Ġatri um
chem atic
Ġple ura
abd om
5 6
c om
j ect
Ġ Ġ
Ġa dduct
Ġa ortic
Ġo v
he ad
up p
ly ing
Ġt es
Ġis ch
ransver s
Ġob turator
ĠO verview
ress ure
Ġac cessory
Ġax illa
Ġgangli a
Ġlymp hatic
Ġind ic
Ġbul b
Ġlar ge
Ġqu ad
ĠSer ial
3 2
6 8
7 0
P ro
m er
u ff
Ġ 200
Ġth an
en ed
Ġc occy
Ġb rain
re ct
os a
os to
âĤ¬âĢ Ŀ
asc ular
Ġsub mandibular
Ġpal ate
Ġpal atine
tes t
ric eps
Ġduct s
Ġarch es
Ġop ening
eat us
Ġfol low
Ġcartila ges
Ġpor tion
rim al
Ġroot s
Ġbronch i
Ġlung s
Ġtal us
gem inal
Ġgro ove
Ġloc ated
Ġureth ra
Ġesopha gus
3 1
5 4
5 8
F ig
M ain
l ine
m uscle
t ure
Ġ K
Ġa zygos
Ġs ynovial
Ġf eatures
Ġin nerv
Ġin ser
it ud
hap ed
atom ical
Ġas ce
Ġle sser
In ternal
umb ers
ons tra
ear s
ist ribution
Ġattach ments
ell s
Ġven a
Ġrela tionship
Ġhy oid
Ġenter s
loc k
Ġcross es
pec ial
igur e
itud inal
5 7
5 9
8 0
d eep
f ter
m edial
n s
r ed
in ary
Ġth ick
ter s
Ġc ub
Ġm eatus
os c
id es
id dle
op alatine
ow n
Ġsp read
Ġh or
Ġdis t
Ġon ly
ĠR ight
Ġcav a
Ġcon n
Ġattach ment
Ġbo und
Ġad jacent
Ġvag ina
Ġbre ast
Ġpectoral is
ĠIm aging
6 9
M uscle
b ital
c us
o k
w ard
Ġ er
Ġa g
Ġth in
is ible
Ġc entral
Ġm ore
ve al
il ity
am e
Ġw ere
tom ach
ĠF emale
em oral
In nervation
Ġfib ula
ĠIn nervation
xim ately
Ġcol lateral
Ġsh ort
Ġdra in
Ġcommon ly
Ġdors um
Ġcompart ments
Ġmet atarsal
Ġcereb ell
Ġtuber os
Ġsubc utaneous
Ġhem is
Ġdesce nds
Ġmove ments
oul der
2 1
6 7
N er
f ib
l l
n ot
y p
th al
Ġo ut
Ġs ig
Ġp res
Ġp ressure
Ġc ranium
Ġin vol
Ġe nds
Ġre veal
el toid
ep hal
ĠS chematic
Ġj oin
Ġmed iastinum
Ġr enal
im us
pect oral
Ġfac et
iscer al
Ġsuppli ed
loss al
med iate
opharyn x
Ġmar gin
Ġpteryg oid
unn el
riform is
Ġmetac arpal
Ġdem onstra
humer al
4 3
4 7
5 3
6 0
a vic
i form
m m
m uscles
s es
t on
u ce
th mus
le te
Ġs ides
ĠC ranial
il y
ul t
ep ress
Ġarter ial
ol us
ol og
ge us
Ġle vator
Ġcom munic
ula tion
Ġsc alp
Ġlong itudinal
so as
Ġsac ral
Ġattach ed
res t
Ġst y
Ġtub e
Ġrect al
tric t
Ġnot ch
Ġhy pog
Ġrot ates
Ġeye ball
rim ary
Ġso le
Ġorb ital
Ġuter ine
Ġstern um
Ġillustra tion
Ġne ur
Ġperitone um
Ġinjur y
avic ular
7 9
i ed
p or
s tr
Ġ umbil
in ation
Ġth umb
is es
Ġm ening
re at
ĠW hen
om es
Ġre tra
ĠB lood
ĠB ony
ous tic
ol lic
Ġj ust
Ġpar otid
Ġtra pez
Ġpla ne
Ġplexus es
Ġse ver
ou gh
Ġmusc ular
Ġlob e
Ġpanc reas
Ġbrachi i
Ġbel ly
abdom inal
thal m
5 2
D istribution
c l
c lavicular
i o
m ost
o humeral
er teb
in d
ar ies
Ġp ollic
ra ins
Ġc iliary
ur c
Ġf ace
os us
art ment
Ġsup er
Ġsp aces
Ġma ter
Ġcar di
tra so
truct ure
Ġac oustic
Ġocc ur
Ġresul ting
Ġpharyn geal
Ġseg ment
ĠEx ternal
Ġfold s
Ġval ve
orm al
urr ent
Ner ve
Ġpollic is
L e
d e
d y
i fic
n ess
r d
s h
v en
v ed
Ġa way
in is
Ġof f
il d
Ġt ons
Ġan es
ĠM edial
Ġis thmus
ins ic
Ġg ives
ĠS ub
em ent
ub er
Ġpro duc
tr insic
all b
per one
ts ynaptic
Ġcon ve
Ġsac rum
Ġlay ers
Ġbo th
Ġinf ection
lu id
usc ular
if urc
iz ed
Ġret ro
Ġure ter
Ġter m
Ġori gin
Ġbre vis
ĠRe la
Ġacc omp
Ġlac rimal
Ġcardi ac
4 1
5 1
7 7
C omp
c utaneous
e ver
k in
s haped
v entricular
w h
er ap
th moid
Ġo mental
Ġth orax
or k
Ġs ite
ti m
is h
Ġc ys
Ġc han
Ġf a
Ġb ony
Ġb lock
la t
la ted
os ing
Ġd uodenum
il ar
te mporal
as al
Ġt ransvers
Ġt riceps
Ġt unnel
om edial
ver n
Ġ1 0
Ġl umb
Ġl ingual
un t
Ġfor e
oc al
Ġr ing
ax illary
of ibular
rib ut
Ġpar al
und er
II I
Ġtra ct
Ġsk ele
Ġattach es
tive ly
Ġter es
Ġdesce nding
Ġpatel la
Ġaur ic
iogra m
Ġsec ond
Ġtuberos ity
allb ladder
4 2
7 8
C ourse
g ins
j un
v al
v ity
Ġ zyg
in ac
in atus
le c
ar ia
Ġs uch
Ġp e
Ġp halan
is e
is ion
Ġf ing
Ġf low
la y
ic ondy
ĠC lin
Ġd ermatom
ve olar
ul oc
ul monary
id er
am ina
Ġan terolateral
Ġe pi
Ġe thmoid
ad e
ir ed
Ġca use
ĠIn ferior
per itone
Ġwall s
ud end
Ġdig ital
sp inatus
Ġtri geminal
Ġus ed
pe x
Ġseg mental
Ġcons ists
Ġaris es
Ġdire ct
arter y
roc han
Ġdivid es
Ġmuc osa
Ġfract ure
traso und
Ġterm inal
Ġphalan x
D eep
O b
c on
c ont
n a
o ins
o ok
Ġa bduct
Ġa fter
Ġp at
Ġc r
Ġc osto
Ġc rest
Ġf luid
Ġin tra
ic ine
ro chlear
ac ral
Ġt rans
Ġe mer
ab ility
tern us
Ġare as
Ġj unction
Ġsc an
ĠI V
ĠI II
Ġsub scapular
Ġregion s
ĠN ote
Ġpal p
Ġdig astric
Ġac etab
iz e
Ġnas opharynx
Ġperineum Ã¢
Ġvag us
Ġseg ments
Ġpre v
lan to
Ġcontinu ous
Ġser ratus
Ġpi er
Ġsur g
Ġsur rou
Ġrece iv
Ġur inary
Ġprost ate
Ġperic ardium
Ġcontra ction
Ġtes tis
test ine
osc op
rains tem
erap y
udend al
rochan ter
6 4
6 5
M otor
T erm
i ated
l ue
o tom
r y
w ing
Ġ ile
Ġa pex
or bital
Ġc orac
Ġf ree
Ġf rontal
Ġb and
re atic
ul us
um flex
Ġt ur
Ġre ach
ĠLi gam
Ġl o
ĠB as
Ġli p
ph aryn
Ġhead s
for e
Ġform ing
ina e
Ġabdom inis
Ġop tic
Ġram us
ou nds
ele d
Ġshow ing
iss ure
lev ates
Ġcalcane us
enti al
Ġrec urrent
Ġmalle olus
Ġadduct or
reat ment
thalm ic
erteb ral
7 1
7 3
8 6
F lexes
a th
f ul
m it
m embran
n oid
o und
s uperficial
t uber
y nd
in es
Ġo ss
on om
le ft
ar c
ar row
es e
en c
Ġp ed
Ġc ourse
la nd
la mm
Ġm as
ent al
ent ly
Ġd ura
ing uinal
Ġt ympan
om al
om andibular
ĠM ass
tom y
ĠB ranches
ĠB ecause
ĠS tructures
em a
ĠAr ticular
ia zygos
ect ing
Ġsp inous
Ġj oins
Ġpro vid
ut onom
Ġdis loc
Ġdis pla
uc c
ymp h
Ġal veolar
ĠIn ternal
ĠIn guinal
Ġfem oris
Ġcon dy
Ġmembran ous
Ġbec ome
Ġcl in
Ġret inac
uch al
Ġmand ibular
Ġch ild
Ġcons trict
loss us
ĠMed icine
Ġextens ion
Ġsheath s
Ġpub ic
Ġshow n
Ġed ition
Ġpi riformis
Ġradi us
ains t
Ġappro ximately
Ġorg ans
Ġhemis ph
ephal ic
ĠLigam ents
utonom ic
8 3
D istal
S uperficial
c ement
e e
f ra
h oid
i ous
n umbers
p art
r en
z ed
Ġ under
th rough
th ough
on avicular
ter oin
le t
Ġs trong
Ġp soas
Ġp rimary
Ġc ells
Ġf asc
Ġb ro
Ġb ile
Ġb ifurc
re gion
it oris
li es
ver tic
ĠP h
Ġle n
oc alcane
Ġcar pi
Ġal low
Ġcon c
Ġflex ion
Ġpla te
fer ens
res p
Ġdistal ly
Ġsit es
ser ve
Ġthird s
Ġaris e
ĠArter ial
Ġmove ment
gem ent
Ġisch ial
Ġag ainst
Ġcys tic
Ġskele ton
icondy le
ĠClin ical
teroin ferior
6 1
6 2
6 3
7 2
8 1
S F
c ol
d uct
d uce
e al
l ot
o oth
s ide
s upp
Ġa ct
in ator
Ġth ere
or r
Ġs een
en ital
Ġp h
Ġc m
Ġc al
Ġc ourtesy
Ġf issure
Ġin testine
te g
ul om
om astoid
Ġan atomical
op le
op halan
Ġg ast
Ġla m
un ctions
ect or
se e
se ter
oc iated
Ġh ere
ir al
Ġr uns
ph thalmic
ĠTh erapy
ĠTh ese
Ġra diograph
Ġro of
xim ally
ĠO n
Ġst ud
Ġul na
Ġbec omes
Ġsens ation
iz ontal
Ġso ft
Ġen lar
Ġhem iazygos
Ġaris ing
ĠX I
Ġdire cted
Ġexc ept
Ġsepar ated
pinal is
Ġview s
Ġcover ing
Ġdo es
rem oved
Ġglen ohumeral
Ġcoccy x
Ġcub ital
Ġsig moid
str uction
Ġretra cted
ĠRela tionship
Ġpat tern
Ġtympan i
ophalan geal
8 2
F lex
O n
V isceral
a to
c k
c o
c ulom
f ascia
i pectoral
k ing
o od
r ical
t a
u ne
Ġ round
th at
Ġa ir
ar p
Ġs li
Ġs ynd
ra e
ĠA x
Ġc uff
us p
Ġf unction
Ġb und
Ġm ade
ĠT reatment
ul ti
ul nar
Ġt arsal
om mon
Ġv ocal
Ġg ir
ĠS agittal
ia tion
ect s
ow ing
ol umbar
Ġfor amina
Ġex am
Ġpro ced
Ġpro duce
Ġat las
all uc
ap hen
ir th
Ġper s
Ġca ud
Ġsupp ort
ĠI I
Ġpar ti
Ġpar asympathetic
Ġflex ed
und us
rat ing
Ġdra ins
Ġduct us
Ġlimb s
Ġabdom en
Ġinc reas
Ġrela ted
Ġop en
Ġexp ose
Ġcl itoris
lav ipectoral
iast inal
Ex ternal
opharyn geal
Ġwe ak
Ġcaus es
iti es
Ġquad ratus
Pro ximal
pecial ly
Ġaccomp any
Ġepi ph
peritone al
membran e
Ġbro ad
culom otor
Ġgir dle
alluc is
aphen ous
7 4
A bduct
D orsal
F or
G en
N ote
S ub
S kin
b y
b ranches
c an
l ingual
m a
n ic
o le
o cle
t ain
v ing
Ġa fferent
Ġo s
Ġth orac
or n
on ents
ter os
ar dial
Ġs tomach
Ġp et
ra tion
ĠA l
is pinalis
Ġc ric
Ġb ucc
Ġin t
Ġin ternus
ĠC ranium
ĠC lay
li mb
ac rom
ve in
Ġto e
um an
id omastoid
ĠD M
ĠD ia
ĠM ale
op h
ĠF ig
ĠF eatures
ĠF igure
Ġl oss
ad ial
ĠP ro
ĠP ounds
ol d
Ġh allucis
Ġdis e
ph al
Ġca vern
uc es
Ġsc hem
Ġinter ventricular
ner ves
Ġcomp ress
Ġcomp lete
Ġcont act
Ġsection ed
ĠO b
sp inal
form ed
Ġexp ression
Ġexp osed
esce nds
Ġrot ator
ĠJ H
ff ected
Ġlab eled
Ġpub is
Ġab s
uod enal
arter ies
Ġanastom oses
Ġimp ort
Ġep ig
Ġep icondyle
Ġpanc reatic
Ġdevelop ment
Ġrelationship s
Ġumbil ical
Ġmening eal
Ġtons il
Ġpe ople
ĠBas ic
lamm ation
ĠMass age
Ġcondy le
teg rating
ocle idomastoid
7 5
8 9
E levates
R ight
R uns
b e
b etween
e li
g th
m ius
p atel
s ion
u li
v a
v essels
w ell
er es
er vical
Ġo ment
Ġth ose
ar enal
Ġs omatic
Ġs ame
es c
en e
Ġb le
Ġm enis
ĠC utaneous
ac ial
Ġto ward
Ġn uchal
Ġar row
ne mius
ĠP elvic
Ġsp le
ection s
Ġpro ximally
Ġat lanto
Ġh er
Ġh igh
Ġon to
Ġr ed
Ġper i
our ses
Ġsc ans
ov ascular
Ġinter vertebral
ĠI X
ĠI f
ang es
ĠV II
Ġcont ain
cer vical
Ġmid line
Ġflex es
Ġsupply ing
Ġax is
Ġrela tion
ĠJ oint
pi rat
Ġori fic
Ġgen ital
roc nemius
Ġpteryg opalatine
Ġperitone al
Ġmuc ous
Ġass ociated
Ġinclud ing
ret ch
Ġfacet s
Ġtrapez ius
ific ation
Ġtransvers us
Ġparal ysis
Ġauric le
Ġzyg omatic
Ġethmoid al
Ġdirect ly
Ġsurrou nding
Ġreceiv ing
Ġmas seter
Ġconstrict or
resp ond
7 6
8 8
9 0
A s
C ommon
I V
L ong
T ransverse
f fic
f act
f emoral
g er
g ot
l ing
l ong
l usion
m an
r in
r arenal
Ġa ge
al on
al is
Ġo pp
ter omedial
ar ticula
ti ss
Ġp ap
Ġc ur
Ġc lavipectoral
Ġb irth
Ġm an
Ġm ulti
Ġin terior
Ġin fer
re ater
os um
ĠT em
Ġd eltoid
Ġd epress
as es
up ture
Ġt rochanter
ch nic
Ġsup rarenal
Ġv ol
Ġg allbladder
ĠS pinal
ĠS upra
ĠS alon
ĠP ar
ow ever
Ġsp erm
Ġsp hen
Ġsp iral
ge ther
se qu
Ġex tra
oc lavicular
Ġdis s
tend ed
ĠV isible
ĠAbdom inal
vers ion
Ġtend inous
ig n
Ġsh oulder
pe b
Ġde ferens
tens ion
if th
Ġsm ooth
Ġvag inal
loss opharyngeal
ĠMed ical
Ġbronch us
ĠNer ve
ĠX II
lan chnic
Ġnucle i
Ġval ves
Ġrece ives
Ġlob es
Ġass ists
Ġcaus ed
Ġcirc umflex
Ġaur icular
Ġpa th
Ġprost atic
Ġvestib ular
Ġglen oid
com mon
Ġ200 2
Ġhor izontal
Ġcerebell ar
wh ich
Ġfore head
Ġretinac ulum
fact ory
got ympanic
ĠSalon en
Ġsperm atic
8 4
8 5
9 1
P elvic
S h
a w
b ec
d en
d is
f ied
i ofibular
m o
o tic
p ass
s tructures
u es
in ed
Ġthe m
or ts
Ġs tra
Ġs wall
Ġs agittal
Ġs aphenous
en er
Ġp hal
Ġp udendal
Ġf ifth
Ġm astoid
it es
it ation
ent or
ĠC ol
ĠC omp
ac ter
Ġn arrow
ri d
ri mar
ĠL umbar
Ġt ens
at ure
ot ential
Ġ1 1
di g
di vid
ĠAr ms
Ġarter iogram
ub ic
ation al
In ter
Ġma gn
oc ostal
ir cle
ĠU l
tend inous
oral is
ens ory
og lossus
ov al
eck er
ang ular
ĠV ertebral
Ġpal peb
Ġti p
Ġres ist
Ġcol or
Ġk n
Ġili o
Ġdissection s
Ġde f
Ġop ened
Ġref lexes
Ġextend ed
Ġori ent
Ġes pecially
Ġglute us
Ġexc ised
Ġfibular is
ĠRadiograph s
Ġarticula tes
ĠRe gion
Ġinclud e
rachial is
Ġindic ate
Ġinnerv ates
Ġasce nding
Ġbound ed
Ġhypog astric
Ġfa uces
uloc utaneous
Ġsubscapular is
ymph ysis
Ġconc ha
acrom ial
Ġdise ase
patel lar
pirat ory
Ġphal anges
rimar ily
ĠArms trong
8 7
C ranial
E n
P la
S upra
S pecial
a ud
b a
b rain
c i
c ti
c ranial
e k
e ur
g ed
g land
i e
l s
l er
m uscular
n ing
p a
p us
s is
s urface
t ri
y ed
Ġ ),
Ġ if
Ġ vertic
in ternal
ar ach
Ġp age
ĠA ction
is ual
Ġc ontents
ur ed
Ġf ix
Ġb rainstem
la tion
Ġm am
Ġin trinsic
re ase
ĠC SF
li e
li ke
Ġd am
Ġd ural
ran on
il um
an geal
te x
ul la
as pect
ĠL e
Ġt yp
at ri
at ory
ĠM o
ĠM y
op elvic
Ġre cess
ĠB ecker
ep artment
ĠS ch
mp or
Ġex it
oc ol
Ġpro f
Ġper for
ens ation
uc iate
ula te
umb er
Ġaspect s
cess ive
ĠIn terior
Ġcan not
Ġac ross
gin ous
Ġul trasound
Ġun ilateral
tens or
ograph y
Ġref le
Ġcl ose
ex c
Ġpos tsynaptic
iv ed
ten oid
ĠMed ian
Ġcoron al
ĠEx pos
Ġcontinu es
Ġmax illa
Ġpharynx Ã¢
Ġwe ight
Ġillustra tions
Ġim aging
Ġbas es
Ġvestib ule
Ġorg an
ject s
Ġfollow ing
Ġinnerv ated
Ġcerebell um
Ġpres ent
Ġdemonstra ting
Ġsty l
Ġhypog lossal
lec ranon
Ġacetab ular
enc y
omal ies
Ġhemisph ere
Flex or
teros uperior
phal angeal
Ġimport ant
eli ac
well ing
tiss imus
Ġinfer olateral
arach noid
ĠExpos ure
A Ã¢
C ont
F unction
J V
M id
b r
b ranch
c irc
c ondy
g ing
g angli
i tive
k et
l factory
m iddle
o to
p elvic
t w
v ag
y rin
in ate
Ġthe nar
ar ing
ar tila
Ġs al
Ġs tructure
Ġs ize
Ġs ymphysis
en ces
ti le
Ġp up
Ġp otential
Ġp rimarily
Ġc he
Ġc une
Ġm any
Ġin s
os ite
Ġto gether
ec tomy
Ġn o
id enti
am oid
Ġt ak
Ġan i
Ġe mb
Ġe lev
Ġar c
ĠF lex
ad s
Ġli ke
ĠP art
ow led
Ġsp lanchnic
Ġle sion
Ġpro tr
Ġhe l
Ġwh o
ĠH uman
Ġsc al
ys es
ill ar
Ġpass age
Ġpass ages
Ġcont in
Ġpar alle
Ġob struction
ĠO f
ĠO r
Ġac rom
Ġdra w
sp ec
sp inous
Ġtrunk s
Ġhy p
Ġpharyn gotympanic
Ġpor tions
Ġsystem ic
Ġret ina
Ġad dition
Ġinj ected
Ġlab yrin
oth yroid
anterior ly
Ġcor respond
Ġdire ction
Ġab ove
Ġgro up
Ġtrac he
Ġmain ly
par asympathetic
Ġple ural
Ġnear ly
Ġanastom ose
Ġsepar ate
ca vity
Ġcirc ulation
Ġmy lohyoid
thes ia
Ġappro ach
Ġasce nds
Ġdist ribution
fib ers
sh oulder
perone al
perone us
Ġconve x
ribut aries
aria tions
Ġfing ers
Ġdermatom e
Ġemer ges
oscop ic
otom es
Ġfasc ial
Ġgast rocnemius
rical s
arp ophalangeal
Ġsli ght
Ġschem atic
Ġorific e
ĠLe ft
Ġlabyrin th
A dduct
B ecause
D epress
D escends
H e
P ar
S omatic
a ider
b lue
c ular
d own
e ak
e jun
h ragm
i to
l aryn
l ish
m y
m es
m ary
m otor
n ormal
o chlear
p elvis
p lexus
u ate
v ide
w a
Ã Ĥ
th oracic
in to
Ġo phthalmic
ar ticular
ar acter
Ġs ul
es amoid
Ġp oint
Ġp ron
ra te
Ġc enter
Ġf igure
Ġb ilateral
Ġm e
Ġin ner
ic les
ro tum
it ate
os tic
ĠC T
Ġd esc
ec ond
ec tile
an asal
ing le
um e
ĠL ay
ĠD epartment
Ġar y
di ap
Ġv es
Ġv ul
Ġv isible
rom e
un ct
ib rous
ub le
Ġle a
the ti
Ġma xim
oc ephalic
Ġr un
and ible
ĠH aider
ord ers
uc ent
ear ing
ud den
for amen
tach ments
Ġrem ain
ast us
Ġsk ull
res ynaptic
Ġocc lusion
pal mar
ereb ral
Ġbo x
Ġinf lammation
Ġun ite
Ġscap ular
Ġapp ear
Ġref lex
ex ternal
Ġover lying
Ġter min
Ġulnar is
Ġpre vertebral
Ġgen icular
ote mporal
Ġfour th
Ġser ous
Ġmusc ul
gn ostic
ull ary
gra m
iogra ms
Ġinfra temporal
joint s
ros al
Ġjoin ed
Ġsever e
Le ft
Ġproduc es
Ġcosto transverse
Ġprev ent
Ġsurg ical
Ġtur n
Ġclin ical
ren ic
Ġbund le
Ġproced ure
Abduct s
Ġpet rosal
Ġcavern ous
Ġepig astric
Ġoment um
man ent
Ġsphen oid
Ġorient ation
diap hragm
Ġmaxim us
9 2
9 3
B ranch
M ed
P i
P resynaptic
S pinal
a il
a tive
b er
c ons
d eltoid
f id
g inal
i atus
j ur
m et
n od
o ol
r ing
s ur
s ph
y pe
le sser
Ġs im
en et
Ġp is
ra di
ĠA ll
Ġc ircle
Ġf lat
Ġf ood
Ġb iliary
ic us
it ary
os p
ĠC h
ĠC ervical
Ġd ep
ec h
an astom
Ġn am
ul ts
ri ent
um or
om et
Ġw ill
art ments
ĠD ermatom
ver ge
ver ted
Ġe as
ab ili
Ġv as
Ġv astus
Ġl ines
ĠE d
ĠE nd
ĠS ynovial
ĠS upp
ĠS tructure
ĠP os
Ġsp l
se g
oc ket
Ġor al
Ġr ise
Ġha m
Ġwh ile
tend on
ĠTh ere
ĠTh oracic
ord a
Ġinter phalangeal
Ġsub lingual
per ineum
ĠV isceral
ĠV ariations
ĠR ot
Ġbe fore
ni us
rat rochlear
Ġtra vel
Ġili um
ove ments
Ġtri angular
hy pog
Ġtib iofibular
Ġun ion
Ġdors i
pe nd
ob rachialis
Ġpul se
Ġscap hoid
Ġexp ans
Ġrot ation
Ġapp end
Ġen cl
Ġch in
Ġover la
Ġscapula e
oplite us
Ġgen u
Ġhem orr
Ġtiss ues
osse ous
Ġtal ocalcane
chle a
Ġtibial is
Ġcontinu ation
pro duc
inter costal
Ġsepar ates
Th ree
Ġcalcane al
Ġdivid ed
Ġim ages
Ġfract ures
orm ally
Ar ter
Ar ises
Ġy ear
Ġsem ispinalis
Ġbrachi ocephalic
Ġvar i
Ġperic ardial
com munic
Ġindic ated
Fig s
Ġmetacarpal s
Ġcommunic ates
Ġneur ovascular
Ġanes thetic
Comp onents
Ġfing er
Ġlo op
Ġprovid es
Ġdisloc ation
ĠPh D
Ġlen gth
Ġcaud ate
Gen eral
ĠAl though
Ġopp osite
Ġdiss ected
Ġswall owing
ĠSch ool
Ġsal iv
Ġsul cus
fid us
Ġexpans ion
F unctions
M iddle
P er
S ensation
W hen
b le
b ial
b one
c or
c ing
f rontal
i ent
i tions
m id
m its
o ver
p oint
s ch
s ep
s ystem
v ix
y pog
z es
Ġ u
Ġ identi
Ġa v
Ġa utonomic
al es
Ġo lecranon
Ġth yro
nd er
Ġs n
Ġs te
Ġs tr
Ġs esamoid
Ġs ingle
en ar
ti re
ti form
ti tu
Ġp o
Ġp oss
Ġc us
Ġc ha
Ġc ourses
Ġb ed
Ġm er
ed le
ed ing
ic ardium
re qu
os acral
li ed
ĠT yp
Ġd er
ing iv
Ġn ote
Ġn ormal
ri um
um a
up per
ĠAn atomical
Ġt orn
Ġt entor
at tachment
op ulmonary
Ġre pla
di rect
el li
ne a
Ġner v
ct s
ct ing
ĠF or
ĠF loor
ors um
Ġg em
ĠS ection
ĠS ee
rom in
ĠAt tachments
las tic
ect al
ub ital
ol low
Ġsp len
Ġsp inae
Ġj ejun
oc occy
Ġh is
Ġh iatus
Ġdis tended
Ġr upture
im ens
tend s
ĠH ip
lo ic
og enital
Ġinter muscular
ys m
ĠIn fra
ĠIn tegrating
Ġsupp orts
tra c
Ġsub costal
Ġsub occipital
Ġsub arachnoid
ĠV I
Ġcan cer
Ġform ation
Ġcomp ression
ĠO ss
Ġcon dition
ist ing
ogra m
Ġte mpor
Ġst retch
oti bial
Ġtub es
Ġdors if
Ġinc ision
Ġrela tions
itone um
inu ous
Ġoblique ly
posterior ly
Ġgen eral
Ġsmall er
Ex it
Ġbrachial is
Ġradi o
Ġmar k
Ġrece ive
Ġep id
oul d
Ġcover ed
Ġcover ings
Ġureth ral
Ġesopha geal
ca ve
Ġfat ty
Ġpatel lar
Ġmy oc
Ġgra c
Ġgra sp
Ġmetac arpophalangeal
Ġy ears
thes es
Ġsem inal
comp artment
Ġer ectile
Ġmetatarsal s
Ġinvol ved
mediate ly
olog y
Ġsty lohyoid
Ġumbil icus
Ġmening es
Ġsever al
Ġchan ges
Ġlumb orum
jun cti
Ġabduct ed
Ġpalp able
Ġnasopharynx Ã¢
Ġpier ces
oscop e
Term inal
Term ination
Ġunder lying
Ġbifurc ation
Ġlam ina
Ġstud y
Ġsynd rome
Ġparti ally
Ġepiph yses
Ġcric oid
Ġbucc al
Ġint act
Ġmenis cus
Ġsple en
divid ual
ĠMy otomes
ocol on
Ġprof undus
exc ept
Function al
condy lar
ĠPart s
owled ge
Ġscal ene
Ġparalle l
unct ure
ĠDermatom es
hypog astric
ypog lossal
titu te
juncti va
A t
C ells
D i
M uscles
P os
Q u
R adial
S c
S p
S em
S tern
b lood
b ronch
c ross
c arpal
d uring
d orsal
g reater
m is
m uc
m ay
n ia
o ther
o uble
p re
p res
r up
s c
v as
Ġ :
Ġ ent
Ġ ir
Ġa bd
Ġa per
Ġa ffected
in i
or g
ter us
le ss
ar ch
ar ium
Ġs welling
Ġs udden
en theses
Ġp us
Ġp ur
Ġp enet
Ġp opliteus
ra inage
ĠA ctions
Ġc lavicular
us ed
Ġb lue
Ġin let
ro ximately
re lation
os ure
li que
il is
il ic
ec tive
Ġn ut
Ġn etw
Ġn umber
ul otemporal
as te
Ġt ributaries
Ġw id
Ġw ind
art or
ĠD e
ĠD orsal
Ġan ular
Ġan eur
Ġe fferent
ĠM an
ĠM uscle
ĠM ost
Ġis chem
op e
ĠLi br
el f
Ġsup inator
Ġv isual
ĠF oot
Ġg ingiv
ep atic
Ġla t
Ġla cer
Ġla tissimus
ĠS t
ĠS tomach
ĠP al
un cle
un ate
Ġex cessive
oc arpal
Ġmed ullary
Ġpro j
Ġh ilum
Ġdis app
Ġve li
Ġfib ros
uc k
Ġsc rotum
ov entricular
ĠIn ter
ip loic
ĠN ational
Ġpal ato
for earm
Ġcont ract
Ġpar ticular
Ġbe ing
Ġbe gin
Ġbe gins
Ġcon junctiva
Ġflex ors
Ġrem oval
Ġtw ig
Ġpla ced
Ġcer vix
qu us
Ġst ri
Ġun ites
Ġde v
Ġrela tively
Ġco vers
Ġcartila ginous
lymp h
Ġmet ast
Ġextend ing
anc y
ff ect
Ġpos terolateral
Ġen tire
Ġch aracter
Ġmes ocolon
Ġburs itis
Ġdia gnostic
ucle us
illa e
âĤ¬âĢ¢ )
Ġstern ocleidomastoid
Ġcross ing
Ġhumer al
Ġed ema
ardi ac
Ġventric ular
Ġmusc ulocutaneous
Ġloc al
inter osseous
Ġsupra spinatus
Ġinterosse i
ligam ents
Ġarticula tion
Ġarticula te
Ġkidne ys
Th is
Ġdivid ing
gra ph
gra de
Ġur ogenital
Ġpa ired
Ġdem arc
Ġeyelid s
Ġov ary
Ġlarge ly
rect al
Ġer ector
Ġhemis ected
Ġchan n
Ġfa il
unt ary
uloc ochlear
Ġacetab ulum
otom e
Ġile um
Ġcorac oid
pharyn geal
Ġoss if
Ġdispla ced
Ġlen tiform
Ġph renic
Ġlam inae
ĠAx ial
Ġincreas ed
Ġthorac olumbar
ĠPro ject
ĠOb serve
As ce
Ġpap illary
ĠTem p
sequ ently
Sh ort
Ġtens or
Ġpalpeb rae
Ġkn own
Ġilio inguinal
Ġvertic al
Ġinferolateral ly
Ġcune iform
Ġslight ly
Depress es
wa ys
Ġves ical
jur y
Ġsim ilar
Ġpis iform
Arter y
Ġsn uff
Ġcus ps
Ġnerv ous
Ġgrac ilis
Ġnetw ork
ĠLibr ary
B ody
B ranches
F acial
I li
M o
O p
R e
R ect
S ynovial
S ty
T ra
c r
c oron
c lavian
d el
d uodenum
e ach
f ess
g en
i ph
i ration
k nee
l us
l umbar
m e
n ose
o hyoid
p o
p tion
p ain
p ulmonary
r ont
r inc
s a
s on
u g
u ous
u ffic
v aria
y k
y lohyoid
y mis
z e
z yk
Ġ z
Ġ lying
Ġ rid
th is
th orac
Ġa dd
in osus
in opelvic
Ġo uter
Ġo culomotor
Ġth us
or ter
on ic
nd inosus
ar m
ar ian
Ġs ix
es tive
ti l
ti al
Ġp in
Ġp romin
ĠA c
Ġc y
us ually
Ġf ul
Ġf ric
Ġf lav
Ġf ive
Ġf ull
Ġb low
la ck
Ġin iti
ic es
re c
re f
he patic
ĠC on
ĠC ubital
ac rum
ve ins
ran gular
il led
ec al
an ts
ul ses
ri geminal
ĠL ans
id ymis
Ġt a
Ġt able
Ġt ype
at ini
Ġw ork
ĠD uring
ver t
Ġan ulus
Ġe le
Ġe version
ĠM iddle
Ġre lie
di vision
di fied
el la
el ves
pp ed
ab ly
Ġg o
Ġg lossopharyngeal
ad duct
ĠB rachial
ep end
ĠThe y
ĠS c
ĠS tern
ĠS eg
ess er
ess el
ĠP ect
ib ial
ub oid
Ġle ss
oc r
ves ting
tr ing
all s
Ġh ook
Ġh old
Ġh owever
ong i
ĠU re
ĠU terus
Ġr h
Ġr ings
Ġmedial is
Ġpart ly
Ġinter mediate
ys ial
cess es
Ġregion Ã¢
ĠV al
of emoral
of ibrous
rib riform
Ġcont ains
Ġfascia e
Ġres piratory
Ġcav ities
vers es
Ġmid brain
ĠPer manent
Ġcol ic
ibular is
Ġfossa e
Ġgla ns
Ġse qu
ite ndinosus
Ġsuperficial is
Ġst u
ron ic
sp ine
Ġtri ad
Ġven ae
Ġinc is
Ġinc ised
Ġinc rease
Ġpul ls
Ġrela x
ule s
Ġthigh Ã¢
Ġrot ate
uch arc
Ġmale Ã¢
lute al
ser tion
Ġch o
Ġbronch opulmonary
Ġdesce nd
superior ly
Ġstern ocostal
Ġradial is
Ġmin im
ĠCoron ary
Ġsitu ated
Ġmouth Ã¢
Ex its
Ġab out
opharyn geus
icular is
Ġventric les
inferior ly
sub mandibular
sub cutaneous
Ġanastom osis
Ġarticula tions
Th ere
iss imus
Ġtubercle s
Ġim mediately
Ġrefer red
Ġlar ger
Ġcirc ular
Ġbas ilic
Ġrec ons
thes e
Ġinfra hyoid
Ġmalle us
Ġov al
Ġcoccy geal
ĠK ucharc
Ġinser ted
Ġhor n
Ġag ent
Ġreveal ing
Ġsuper olateral
ven ous
Ġtons illar
Ġanes thesia
ĠSub occipital
Ġinfection s
Ġretro grade
Ġlumb ricals
Ġparal y
Ġdermatom es
Ob serve
cont ra
Ġcr uciate
Ġtrans mit
Ġtur ns
Ġoss ification
Ġped uncle
ĠRelationship s
usp ensory
Ġos se
ĠDia phragm
Ġher ni
Ġmulti fidus
Ġvol ume
ĠPar anasal
Ġmagn um
ĠUl trasound
Ġtyp ically
atri al
Ġperfor ating
ĠOr bital
Ġacrom ion
spec imen
Ġhyp oth
Ġcorrespond ing
Ġdesc rib
ĠLay ers
Ġary tenoid
Ġvul ner
theti zed
system ic
Ġsplen ic
Ġdorsif lex
Ġmyoc ardium
Ġaper ture
artor ius
fess or
Ġful ly
Ġfric tion
ĠLans down
ĠKucharc zyk
A B
A bdom
A ctions
B ase
H ypoglossal
L ower
P haryn
R ot
R et
S eg
T ibial
V ertebral
a ffected
b ase
b ody
b rachial
c ent
c erebral
f em
f oot
f low
i ography
m osis
m andible
o ves
o abdominal
p anc
p ubic
s upra
t ors
t rochanter
w hen
w rist
y ond
Â °
Ġ ;
Ġ rim
th yroid
Ġa usc
in f
in ing
Ġo lfactory
or b
or tal
ter ion
le ar
le ge
le vel
ar k
Ġs hap
Ġs ut
Ġs ternal
Ġs haped
Ġs uspensory
Ġs artorius
es lin
es mosis
en oid
ti es
Ġp uncture
ra c
ĠA d
is ing
Ġc re
Ġc od
Ġc ell
ur ic
Ġf ar
Ġf ur
Ġf etal
Ġb orders
la b
Ġm olar
Ġin dividual
ro t
ro up
he art
ĠC or
ĠC ar
ĠC ross
ĠC eliac
li um
ĠT rans
ĠT ex
Ġd en
ac arpal
ac etab
ha m
ha ve
ha ge
Ġto oth
ran ge
Ġn on
Ġn ec
Ġn ormally
Ġt rochlear
ĠW e
Ġw ide
Ġw ell
ĠD ig
Ġan teromedial
Ġe mp
Ġe qu
ĠM uscular
op osterior
el t
Ġl unate
Ġg a
Ġg iv
ep ig
ep iploic
ĠS ur
ĠS ympathetic
Ġli mit
rom b
ĠP opliteal
ub rium
ol itary
et us
Ġare olar
mb er
In fra
In tegrating
In sertion
oc uboid
Ġmed iastinal
Ġpro vide
tr uction
Ġh ence
ap oph
ut ed
Ġwith out
oid s
ĠU r
ral ateral
vis cer
im embran
ĠH epatic
ĠH eslin
lo femoral
asc ial
ys ma
Ġthrough out
ĠI JV
Ġsub acromial
ud e
Ġcont ribu
Ġpar entheses
Ġmid point
Ġcon cave
enter y
ig moid
Ġk eep
rach noid
ress es
so lated
Ġsh orter
Ġcer vic
Ġte ar
qu ired
Ġocc up
ell us
sp ace
Ġcord s
Ġsep ta
ograph ic
Ġco chlear
Ġapp ar
Ġapp ears
Ġcereb elli
Ġenter ing
lav ius
pi ration
Ġline a
Ġpos teroinferior
Ġch orda
Ġori gins
Ġspec imens
Ġpre p
Ġlab ial
Ġlab els
teryg opalatine
Ġang les
Ġang iogram
med ian
Ġcor tex
Ġcor nea
ĠRa di
Ġab normal
arter ial
Ġatri oventricular
Ġpi ec
pla ne
Ġel ong
Ġloc ation
Ġmain tain
duc tion
pro ximal
Ġhal ves
Ġsupra clavicular
Ġimp ulses
Ġwe ek
Ġ19 9
Ġcaus ing
Ġbas ilar
Ġinjur ed
gn ancy
Ġy o
Ġsem itendinosus
Ġpa ir
Ġsphincter s
app end
ros is
umbil ical
Ġcontra st
Ġquad rangular
Ġ200 3
Ġopening s
Ġfollow ed
Ġinser tion
Ġinser ts
osc opy
Ġspread s
fib rous
Ġinvol ving
Ġdemonstra te
olog ical
por tal
Ġtrapez ium
Ġsuper omedial
Le vator
Ġproduc ing
Ġconve yed
Ġaccomp an
wh ere
lec tively
Ġemer ge
ĠIV C
Ġpalp ated
Ġpier ced
Ġcorac obrachialis
tuber ous
Ġhemisph eres
Ġallow s
Ġallow ing
lot tic
lot tis
Ġact ing
Ġcal varia
Ġenlar gement
Ġpers on
Ġepiph ysis
Ġbucc inator
Ġint ro
Ġabs ent
Ġarrow s
Ġperi ph
Ġcontain ing
Ġgenital ia
Ġmulti ple
Ġvaginal is
Ġresist ance
Ġmam mary
Ġweight ed
oto graph
tw o
Ġpup il
Ġarc uate
Ġcontin ue
Adduct s
lish ed
mes enteric
Ġme et
Branch ial
nod es
Ġvari able
sep ar
Ġpo or
Ġposs ible
Ġder ived
Ġgem ellus
ococcy geus
Ġepid idymis
Ġaneur ysm
Ġfibros us
Asce nds
Ġhypoth enar
Ġvulner able
Pharyn geal
Seg ment
Ġausc ult
apoph ysial
imembran osus
% ,
. )
A cting
C M
G lute
I sch
M J
M RI
M ost
M andibular
O culomotor
P al
S I
S m
T em
T ens
U l
V estib
a val
b ic
b re
b ones
c is
d ural
e ye
f e
f ossa
f emale
g ical
g lossus
h ing
i la
i op
i pp
i oclavicular
i oglossus
i ency
m od
n owledge
n ucleus
o dies
p he
p udendal
r ises
r itation
s k
s up
s inus
s heath
v entric
v anc
w n
Ġ [
Ġ 20
er b
er y
th ri
th Ã¢
Ġa rachnoid
al th
Ġo th
Ġo tic
Ġth ereb
or ig
or ption
Ġs ocket
en osis
Ġp y
Ġp it
Ġp orta
Ġp lus
ĠA s
is k
is tic
Ġc ec
Ġc ephalic
Ġc ases
Ġc ribriform
Ġc lear
us es
us pend
ur n
Ġf e
Ġf use
Ġf ound
Ġf unctions
Ġf elt
Ġf etus
Ġb ud
Ġb are
la med
Ġm it
Ġm ass
Ġm ust
Ġm ental
Ġm ales
Ġin st
ior adial
ic e
ro op
it or
it ing
it ory
ĠC o
ĠT o
ĠT erm
ĠT ongue
Ġd ue
Ġd ang
Ġd own
Ġd uodenal
ac ulum
Ġto uch
ec han
an al
an es
an tes
Ġn ame
ĠL aryn
ĠL ob
am p
at ars
om b
Ġw ing
ot atic
ĠD orsum
ĠD rainage
ver y
Ġan omalies
Ġan sa
Ġe ff
Ġe jac
op p
Ġ1 8
ins er
tic ation
pp ing
ab s
Ġv ascular
Ġv essel
ĠF ascia
ĠF ront
Ġg y
Ġg astric
ad es
ĠB ronch
ĠB ook
ĠE ach
Ġla ta
ĠS m
ĠS p
ĠS ole
ĠS econd
ĠG ra
Ġli g
ine us
rom andibular
Ġarter iograms
inc lud
ĠP ortal
ott ed
ol is
Ġfor c
et s
the lium
Ġex per
oc ranium
oc iliary
oc ecal
Ġmed ulla
od uodenal
Ġhe pa
tr y
Ġh ard
Ġper formed
Ġha ir
Ġha ms
teb rachial
ĠH osp
ĠTh ree
ĠTh ird
Ġcar ri
ula ture
ov ing
Ġal most
Ġal ba
ĠIn f
Ġligament um
ip s
ĠI solated
Ġsub st
per tension
ĠV estib
ĠV III
ud es
ĠR es
Ġpal atini
ina i
Ġcomp osed
ĠHe art
Ġres p
Ġpar a
Ġbe nding
Ġbe yond
Ġmid clavicular
ĠO p
ĠPer itoneum
Ġprocess us
Ġrem ains
Ġtra verses
ress ive
Ġpla tes
Ġac cess
Ġocc urr
Ġcervical is
Ġus ing
ereb ell
Ġinf ants
Ġinf lamed
Ġun til
Ġde ter
umer ous
Ġpul led
Ġhy oglossus
Ġco at
Ġnod e
Ġobli quus
esce nding
uter ine
hem is
Ġcl osing
Ġcl osure
rim itive
inu ation
Ġret urn
Ġad ult
Ġad ults
Ġcons titute
lar gement
len oid
Ġdia gram
Ġspec ial
ĠMed iastinum
ract ures
Ġmost ly
oneur osis
Ġwhere as
Ġcor relation
Ex tends
Ġed itions
opha gus
Ġatri al
lin d
Ġgro oves
Ġexc ep
Ġmar gins
Ġsupra patellar
Ġanastom osing
Ġdisc s
ression s
Ġbic ipital
Ġview ed
velop ment
Th orac
Ġind epend
Ġteeth Ã¢
Ġinclud ed
Ġmy otome
Ġgra vity
unn ing
Ar ticular
ple nius
Ġpa ti
Ġelbow Ã¢
Ġbel ow
Ġinfra spinatus
humer us
Ġov ale
Ġov arian
Ġisch ium
Ġfollow s
Ġcub oid
Ġconn ect
Ġconn ecting
Ġdrain ed
ll ustra
Ġpres ynaptic
Ġinvol ves
Ġretro inguinal
tim es
tim ulation
Ġfore ign
Ġauric ulotemporal
Ġsecond ary
Ġzyg apophysial
Ġintra cranial
Ġsurg ically
Ġsurrou nds
Ġreceiv ed
Ġlo ose
Ġprovid ing
Ġdispla cement
Ġbifurc ates
supp lies
Ġradiograph ic
Ġstud ents
co ver
Ġair way
Ġsynd esmosis
Ġbund les
Ġproced ures
Ġparti al
For amen
can al
ĠOb turator
Ġpancreatic oduodenal
Ġtonsil s
Ġred uc
ĠJoint s
Ġcur v
Ġman ubrium
bec omes
ĠCol lege
ĠComp artments
Ġmagn us
ĠRegion s
Ġconcha e
En ters
Pla ntar
ĠMo ore
Ġstyl oid
terosuperior ly
Ġche ek
Ġtak en
ĠFlex ion
Ġprotr usion
Ġhel ps
Ġtrache al
Par asympathetic
Ġsphenoid al
Med ian
sph incter
Ġflat ten
Ġnam es
Ġeas ily
abili zes
Ġspl it
Ġham ate
ĠRot ator
Ġappend ix
Ġhemorr hage
Ġstr ess
Ġtentor ium
direct ly
Ġjejun um
ĠInfra temporal
ĠOss ification
Ġtempor omandibular
Ġmark ings
Qu ad
Ġpenet rate
Ġdisapp ears
Ġtwig s
Ġmetast as
Ġchann els
Ġfail ure
ĠTemp oral
Rect us
rinc ip
Ġflav a
Ġrelie ve
adduct or
ocr ine
Ġparaly zed
Ġcod ed
ĠTex as
Ġcervic is
Ġprep uce
Glute us
Ġthereb y
orig in
Ġcec um
uspend ed
Ġmit ral
ioradial is
Ġdang er
atars ophalangeal
ĠHosp ital
9 6
A b
A c
A l
A x
B etween
C A
C T
C SF
C ervical
D r
D uring
G reater
H N
J ugular
L ac
L ine
L esser
P s
S D
S t
S up
S ide
S acral
S plenius
T o
T rigeminal
T MJ
a u
a dies
b order
b ony
b ook
b ound
c ar
c ord
c osto
c inate
d ed
d ist
d issection
d rain
d istal
d escends
e y
e ins
e nding
g on
g ener
g ressive
h er
h ere
i i
j oin
l ower
l ung
m en
m ing
m ore
m axillary
n ed
n eck
n ant
o y
o li
o ers
p ers
p enis
s tern
s truct
s ually
t ent
t ory
u x
u y
u ur
u te
v ia
v ation
w o
y ing
Ġ Q
Ġ Y
Ġ i
Ġ ens
er ation
er ces
th ere
Ġa la
in ct
in for
in nervation
al ysis
al king
Ġo l
Ġo wing
or oid
ar um
ar ectal
Ġs a
Ġs w
Ġs le
Ġs ti
Ġs low
Ġs uspended
en ess
en ous
ti ary
Ġp ole
Ġp terion
ra w
ra mid
ĠA pp
ĠA fter
ĠA utonomic
Ġc is
Ġc all
Ġc ong
Ġc ost
Ġc eliac
to le
Ġf ill
Ġf undus
Ġf requ
Ġf used
Ġb rim
Ġb est
Ġb rid
la c
la p
Ġm uch
Ġm echan
Ġin version
Ġin verted
ed ge
ic ulate
ro p
ro ph
re en
re tom
re ated
ĠC ardiac
li ment
ĠT end
Ġd ome
ac aval
ha s
Ġto m
ran gement
Ġn umbers
Ġn avicular
ul d
ri p
as ilar
um atic
ly sis
ĠL et
ĠL ung
ĠAn at
ĠAn kle
ĠAn omalies
Ġt en
Ġt umor
ĠW alls
at al
at ors
om a
om ed
om ing
ĠD i
ĠD ura
ĠD istal
ĠD istribution
ĠD opp
Ġan c
Ġan omal
Ġe ven
Ġe levates
ch es
ch ond
ch uur
op ening
Ġre view
Ġre pres
ĠLi ver
tic al
Ġv entral
ĠF ib
Ġl ord
Ġg ap
ad jacent
ĠB ost
ĠB ase
ary tenoid
ĠS em
ĠG e
ĠG roup
ĠAr ticula
Ġli d
Ġarter i
ĠP re
ĠP alatine
ĠP rimary
ĠP ulmonary
ect um
ol ic
ol ars
Ġfor ce
Ġfor ced
Ġsp ondy
se ver
Ġle t
Ġle ad
Ġle ads
the ir
Ġex er
Ġj aw
In f
Ġma ke
oc ation
oc ons
Ġmed ium
Ġmed ius
od e
Ġpro jects
Ġsuperior is
ith er
tr um
all ow
all ux
Ġdis articula
Ġor is
ong y
Ġdi lat
Ġdi lated
bd ucent
Ġr are
Ġr unning
Ġper form
ers chuur
Ġcar e
ula e
ula tory
Ġsc ler
Ġinter dig
Ġinter condylar
Ġal tern
ag us
ag ed
Ġligament a
ĠI llustra
ĠV essels
ĠV eins
ĠV erschuur
ĠN umbers
ĠN asal
ud ents
ĠR ec
ĠR ib
ĠR oot
ĠR ectum
Ġti l
Ġcan ine
Ġcomp uted
Ġcomp rises
Ġcont ro
Ġcont ribut
Ġcont ralateral
lateral ly
Ġres ts
ort acaval
Ġob ser
ĠO cc
ĠO rient
Ġcol lic
Ġcol lectively
Ġtra uma
Ġac tions
Ġsh ould
Ġsac Ã¢
Ġse lected
Ġte ach
Ġattach ing
qu es
qu et
Ġdra wing
Ġst ap
Ġst enosis
nar row
Ġlimb Ã¢
Ġax ial
tric tion
Ġsep tal
omp lete
Ġinf ected
ob ronch
Ġpul pos
Ġbrach ioradialis
An atomy
usc ulocutaneous
Ġiliac us
Ġco uld
Ġ) ;
iz ation
rag ment
Ġpect inate
Ġret inal
Ġarm Ã¢
Ġure ters
Ġorb icularis
Ġcons ider
cap sule
Ġmes entery
Ġori ginal
Ġinj ecting
ĠMed iastinal
Ġpre gnancy
Ġtal ofibular
irc ular
reas ed
Ġleg Ã¢
Ġstern ohyoid
Ġcor pus
eth od
Ġed ge
Ġaponeur otic
lud ed
Ġatri a
Ġexc ision
pla cement
pro cesses
Ġradi ate
inter vertebral
inter ventricular
par tial
pos es
pos ed
pos ition
Ġsupra scapular
Ġsupra orbital
Ġne edle
Ġdivision s
Ġpatel lofemoral
Ġear Ã¢
Ġinjur ies
Ġur ine
thes is
pec tively
Ġsacro tuberous
Ġdevelop s
Ġkidney Ã¢
app ear
app roximately
ros c
pez ius
Ġadduct s
Ġtes ticular
Ġindic ates
Ġcoccy geus
test ines
Ġinser ting
Ġthick ening
Ġthick ened
Ġdist inct
Ġconn ects
Ġthin ner
Ġcentral ly
Ġtuberos ities
fib ula
Ġjoin ing
Ġdemonstra ted
por a
por omandibular
Ġproduc ed
Ġretro peritoneal
Comp resses
vern ous
Ġlumb osacral
lay er
Ġepi thelium
Ob turator
Ġabduct or
Ġcr us
Ġcosto vertebral
Ġprev ents
pharyn geus
tuber ance
Ġped is
hoid s
supp ly
Ġenlar ged
usp id
Ġexam ple
Ġexam ination
Ġpers ist
Ġaccompany ing
ma jor
Ġcavern osa
Ġble nd
Ġatlanto axial
Ġhigh er
Ġcur ves
Ġdepress ed
Ġpath way
Inter mediate
Ġpalpeb ral
aud ate
Ġfix es
ĠMo dified
Ġrefle ctions
Cont inuation
gangli on
vag inal
artila ges
Ġelev ate
He ad
laryn x
laryn geal
Ġbilateral ly
Ġinner most
Ġtermin ates
Ġturn ed
Pi riformis
Pi erces
ĠEnd ocrine
Ġtalocalcane an
Ġav oid
Ġste adies
Ġcha mber
Ġmer ge
ĠTyp ical
ollow ing
trac hea
Sc iatic
Sp inous
Stern ocleidomastoid
Ġent ran
Ġabd uction
Ġnut rient
Ġgingiv ae
Ġparticular ly
Ġstri ated
Ġdev iation
Mo unt
Op tic
Sty l
gen eral
Ġrid ge
Ġpin ch
Ġcy cle
ĠCon sequently
Ġta ut
division s
ĠSeg mental
ĠPect oralis
Ġrecons truction
Ġosse ofibrous
Ġdescrib ed
Abdom inal
Rot ates
Ġfur ther
acetab ulum
epig lottic
Ġyo ung
Ġaccompan ied
Ġauscult ation
SI S
Ul nar
iop ubic
mod ate
Ġoth ers
Ġinst ability
Ġgy ri
ĠSm ith
Ġhepa tis
ips ilateral
ĠRes piratory
oers ter
Ġsti ll
Ġcall osum
retom otor
liment ary
ĠDopp ler
ĠBost on
ĠOrient ed
obronch ial
Ġpulpos us
% .
% );
A bducent
C utaneous
C ourses
E ach
F emale
F rontal
F ibularis
G lossopharyngeal
H el
I m
L umbar
L ymph
M an
M uscular
N o
N eck
O r
O pp
O phthalmic
P at
P ass
S er
S ec
S ever
S olitary
T ransvers
T aste
V C
W e
W ith
W eak
a orta
b ur
b it
b el
b een
b rach
b ecause
b ifurc
b ably
c alcane
c ised
d ors
d eg
d uodenal
e qu
f ac
f unction
f lexes
f acial
g or
g lossal
g reat
g allbladder
g iography
g men
h or
i el
i oc
i for
i que
j us
k o
l or
l op
l olis
m ens
m ovements
n as
o lated
o tendinous
o ice
p ur
p ul
p ut
p ron
r h
r ich
r ically
s m
s y
s te
s em
s ynovial
s ensory
t rans
t ransvers
t ysma
v il
v ascular
x ation
y ph
y mus
y mm
Ġ ]
Ġ rough
Ġ range
er ally
th s
Ġa ff
in itis
al am
al ong
al so
al tim
al ign
al ifor
Ġo per
Ġo wn
Ġth romb
Ġth alam
Ġthe ms
or ect
on ly
on ads
ter ed
ter oposterior
le ted
ar ret
ar ily
ar thri
Ġs he
Ġs ha
Ġs uc
Ġs tem
Ġs ural
Ġs ust
Ġs lid
Ġs ella
en gth
ti g
ti dis
Ġp rimitive
ĠA F
ĠA Ã¢
ĠA zygos
Ġc hapter
Ġc res
Ġc ase
Ġc left
Ġc usp
us et
to pectoral
to ck
ur b
Ġf ew
Ġf usion
Ġb r
Ġm on
Ġm ic
Ġm at
Ġm od
Ġm ons
Ġin vesting
re la
it us
it ed
ent aculum
os ition
os tomy
ĠC a
ĠC Ã¢
ĠC audate
ĠC alifor
ĠT M
ĠT wo
ac he
ac tive
ac comp
ran ula
il s
Ġn ew
ul ting
ul ty
as ter
um p
um ors
up t
ĠL ang
ĠL eg
ĠAn astom
am ond
am age
Ġt ro
Ġt ree
ĠW ith
ĠW est
at las
at ures
om munic
om ental
Ġw ay
Ġw ider
Ġw ounds
Ġw alking
Ġw edge
ot tom
ĠD esc
ver se
Ġan other
Ġe t
Ġe min
Ġe ither
ĠM ac
Ġis olated
op ic
Ġre quired
Ġre infor
Ġ1 5
di ed
el ing
el bow
ne ur
ne edle
ct ation
Ġv oice
ĠF rom
ĠF oerster
Ġl od
Ġl ined
Ġg round
Ġg row
Ġg ranula
ad dle
ĠB ob
ĠB rain
ĠE n
ĠE s
ep h
Ġla ter
Ġla tex
ĠS up
ĠS ections
ĠS acrum
ĠS CM
ĠG allbladder
ĠG arret
ĠP le
un ar
un ted
ib ly
ion s
ion ally
Ġsp an
Ġsp ines
Ġsp eak
ge ons
se al
the y
the ter
Ġex ternus
Ġma jus
oc ardial
Ġmed ical
Ġpro p
Ġpro t
Ġhe el
Ġhe alth
Ġh umor
ut es
Ġdi fferent
Ġdi ame
Ġdi verge
ach uset
Ġcom m
Ġbranch ing
Ġper mits
Ġha d
ere x
ĠH owever
lo lysis
Ġca theter
verteb rae
Ġ3 0
og en
umb ricals
ymp tom
Ġinter atrial
ys ical
Ġal though
Ġal ways
ag n
ĠIn s
ons ible
Ġdeep er
ĠI nd
ill aries
Ġra d
Ġra ised
Ġra ises
Ġra phe
Ġsub peritoneal
Ġsub tendinous
per ineal
per icardium
ĠV enous
ĠR ob
ĠR enal
of ascial
Ġti me
Ġpass ed
st ylohyoid
Ġro d
Ġro w
Ġcomp onents
Ġres t
Ġpar ath
ort ed
Ġdig iti
Ġdig estive
Ġcav ae
ni fic
Ġob ject
Ġob tain
Ġob jects
Ġob struct
ĠO ther
Ġcon joint
Ġcon verge
Ġtend er
Ġlong er
Ġrem nant
und um
Ġtra bec
Ġtra umatic
use ful
Ġpla cement
Ġpla tysma
fer red
Ġfac il
Ġac k
Ġsh arp
Ġsh unted
Ġili otibial
Ġse e
Ġte gmen
Ġexternal ly
ove a
ove ment
res ults
res ulting
Ġst ability
pal atine
sp iration
form ation
tric le
Ġbo ok
Ġcap itate
Ġbec oming
ob ile
ob lique
Ġpul l
Ġpul p
Ġop ens
Ġexp and
Ġexp lan
Ġexp osing
if id
Ġhy pertension
ars omet
Ġco chlea
Ġlaryn g
Ġrot ated
Ġrot ators
Ġsens itive
rag lenoid
Ġcl osed
Ġnas ociliary
Ġpect ineus
Ġret romandibular
ex p
ex tension
ex tensor
Ġad vanc
Ġintercostal s
Ġen c
Ġcons isting
len ohumeral
Ġsubc lavius
Ġmo ves
Ġspec ific
Ġbre ak
Ġextens ive
Ġlab rum
Åĵ s
Ġtal i
Ġtal onavicular
Ġstern othyroid
lan s
lan giography
Ġcross ed
rist a
Ġpub lished
Ġpain ful
Ġmin imus
Ġshow s
Ġend opelvic
Ġplantar flex
Ġser ies
Ġdorsal is
idne ys
Ġradi ocarpal
pos teroinferior
der ived
sub clavian
Ġimp act
Ġimp ressions
Ġarticula ted
iss ion
Ġne ural
Ġcalcane ocuboid
ca vernous
Ġim age
Ġfract ured
Ġear ly
scapular is
alp ing
Ġbas ed
ĠLymp h
min or
min ish
rem oval
Ġgra d
unn els
eg ins
Ġsem imembranosus
ret ro
ret ory
Ġsec retory
Ġsome times
Ġlac k
comp lete
ĠCN S
Ġvestib ulocochlear
Ġisch iopubic
Pro fessor
ĠK L
medial ly
Ġconn ective
Ġdrain ing
Ġout let
Ġpres ence
pectoral is
Ġcommunic ate
Ġcommunic ating
trict or
Ġneur ons
por tion
str um
Ġretra cts
Ġsever ed
cl oses
Ġmater ial
Le vel
de ferens
Ġanes thetized
ĠSub divisions
ĠRela tions
Ġtransvers alis
Ġskele tal
Ob lique
con n
cont inuous
Ġcr ural
Ġprev ious
Ġpier ce
Ġile al
Ġband s
pharyn x
tuber cular
Ġmas tication
Ġdisloc ated
Ġclin ically
part s
Ġfasc ic
region s
ocalcane an
col ic
col lateral
lot tidis
supp lied
Ġcal ices
Ġgast ro
Ġround ed
Ġsupport ing
Ġincreas es
Ġincreas ing
For amina
Ġos ti
Ġthorac is
Ġpet rous
Ġcric othyroid
ĠDia gram
oph thalm
Ġcomplete ly
Ġepig lottis
Ġoment a
Ġmenis ci
Ġsple nius
ffic ult
articula tion
ĠTem poromandibular
Ġvol untary
dis loc
mo uth
entor ial
Ġilio hypogastric
Ġdef ect
En closes
Pla te
Ġvertic ally
Ġfix ed
Ġdam age
Ġdam aged
Ġperfor ation
Ġstyl opharyngeus
Mid line
circ umflex
gangli a
artila ginous
Ġlesion s
Ġprotr udes
Ġtrache obronchial
Ġpron ation
Ġpron ator
Ġlea ve
Ġremain der
Ġmuscul ofascial
Ġprevent ing
sur gical
osp ongi
ĠCh ar
ech ko
anastom osis
Ġnam ed
Ġeas y
Ġvas a
ĠPos tsynaptic
Ġspl its
seg ments
ĠRot ation
Ġencl osed
Ġoverla p
Ġhemorr hoids
Ġtalocalcane al
produc ing
Ġsaliv ary
Ġsaliv atory
Per for
Ġidenti f
Ġidenti fied
Ġthyro hyoid
ĠTyp ically
Ġrepla ced
trac he
Pos tsynaptic
Sem ispinalis
bronch us
muc ous
rup t
org an
Ġischem ic
Ġischem ia
elf th
Ġlat ter
Ġlat ae
ĠPal mar
Ġproj ection
Ġproj ections
Ġcharacter ized
Ġossif y
coron ary
po uch
uffic ient
Ġz one
thorac olumbar
Ġadd uction
ref lected
Ġtable s
Ġele ct
Ġstu dies
Ġcho langiography
Ġherni as
fem ur
panc reas
tors ion
Ġrim a
Ġshap e
uric le
Ġga ze
Ġgiv ing
Ġcontribu te
Ġappar atus
Ġpiec e
Ġelong ated
Ġ199 9
Ġpair s
Ġperiph eral
Tem p
Vestib ular
sk ele
Ġpy ramid
roop ing
ĠLaryn g
Ġejac ulatory
includ ing
Ġforc eps
Ġcarri es
Ġsubst ance
erebell um
hemis ph
Ġreduc ed
Ġcurv ature
rincip al
Ax illary
Ġcis tern
Ġcost arum
Ġtom ographic
ĠLet ters
chond ral
Ġrepres ent
ĠFib ers
Ġlord osis
ĠArticula ted
Ġdisarticula ted
Ġscler a
ĠIllustra tion
Ġcontro l
Ġentran ce
Sec retomotor
lolis thesis
nas opharynx
vil le
yph osis
ymm et
altim ore
Ġthalam us
Ġthems elves
orect alis
Ġsust entaculum
ĠCalifor nia
ĠAnastom oses
ommunic ations
Ġgranula tions
ĠBob echko
ĠGarret t
achuset ts
Ġparath yroid
Ġexplan ation
arsomet atarsal
ospongi osus
9 4
9 5
A pp
A ction
A ll
B ases
B egins
C erebral
D e
D ist
D issection
E lev
E mer
F rom
F irst
I f
L ies
L oss
M ale
M axillary
M ovements
M ylohyoid
M usculocutaneous
O cc
O lfactory
P V
P h
P ron
R un
S tructures
S ympathetic
S ome
S chematic
S upp
S ee
T rochlear
U pper
Z yg
a v
a ortic
a ired
a utonomic
b s
b ut
b ined
b odies
c orac
c ause
c ious
c uli
d em
d ouble
d escending
e ly
e nds
e eth
e eg
f ing
f at
f loor
f usion
f used
g ro
g luteal
g lenohumeral
h n
h ood
h ipp
i ter
k es
m ine
m atic
m agn
n asal
n iation
n umber
o uth
o ile
o lecranon
p ad
p et
p ower
p opliteal
p ath
p terygopalatine
r ust
r ritation
s ympathetic
s omatic
s tomach
s acrum
s igmoid
t le
t ab
t ub
t arsal
t ains
u a
u tion
u gh
u able
u nds
v ular
v ities
w ar
w ise
x a
x yg
z en
Â ½
Ġ ver
Ġ ĠĊ
Ġ ipsilateral
th en
th ra
th an
th umb
th orax
Ġa mp
Ġa que
in k
in tra
in testine
in orr
al ance
al ized
Ġo ro
Ġo culi
Ġth ough
Ġth ymus
or th
or ge
or enal
on ent
on se
le tes
ar ly
ar ge
ar ctation
Ġs inu
Ġs imp
Ġs tim
Ġs ug
Ġs ymptom
es pecially
es thesia
en to
en tis
en largement
ti o
ti t
ti tis
Ġp ower
Ġp ages
Ġp rac
ra sion
ĠA V
ĠA m
is m
Ġc la
Ġc li
Ġc ing
Ġc ada
Ġc hy
Ġc alc
Ġc rem
Ġc rease
to sis
ur v
Ġf al
Ġf ro
Ġf re
Ġf an
Ġf eat
Ġf ind
Ġf ragment
Ġb is
Ġb earing
la tes
la ps
Ġm oving
Ġm olars
Ġm ethod
Ġin ad
Ġin spiration
Ġin formation
Ġin strum
ed ic
ed ded
ic ose
ic ircular
ro ach
ro ke
it tle
ent ry
os te
ĠC r
ĠC ourse
ĠC artilages
ĠC erebellum
ĠC ommunications
li ver
li ght
ĠT op
ĠT ympanic
Ġd ri
Ġd et
Ġd otted
ac ro
ha nd
il ical
il unar
an el
an kle
Ġn umerous
te mp
te mpor
ul s
ri oc
as ternal
as ce
as ionally
ĠL ee
ĠAn terolateral
am ous
am ple
Ġt ric
Ġt reatment
Ġt ech
Ġt umors
Ġt unnels
ĠW h
at temp
om olog
om modate
Ġw ould
art ing
ot al
ĠD entis
Ġan y
Ġan teroinferior
Ġan tebrachial
Ġe lastic
Ġe very
ĠM R
ĠM axillary
ch i
op a
op tic
op hy
op posed
Ġre pe
Ġ1 4
di re
di mens
el rich
ne w
ne al
ne um
ne xa
ont ally
ont anel
ab ove
Ġv is
Ġv ary
ĠF e
ĠF irst
ĠF emoral
ĠF ibrous
ĠF ollowing
Ġl ow
Ġl ost
Ġl ining
atom a
Ġg lottidis
ad th
ĠB y
ĠB ile
ĠB oth
ĠB rainstem
ĠB altimore
ĠB oile
ep id
ep icondy
ep iph
able s
ĠS ph
ĠS cap
ĠS chem
ĠS ple
ĠS acral
ĠS ci
ĠS igmoid
ĠS inai
em er
ĠG en
ĠG luteal
Ġli ps
Ġli mits
inc reased
ess ary
ess ential
ia tions
ĠP anc
ĠP ortacaval
un ae
ib er
ib ility
ion al
ol ina
ol len
Ġfor ces
et atarsophalangeal
Ġsp as
Ġsp ongy
se lected
Ġex t
Ġex cess
Ġex trinsic
mb ilical
In trinsic
In jury
oc am
Ġmed ia
ves ical
ves tib
Ġpro gressive
Ġpro tuberance
Ġpro bably
tr ude
Ġlateral is
ap er
ap oneurosis
ir m
tal ar
Ġdi p
Ġdi minish
ĠU S
ĠU n
Ġcom es
Ġr isk
Ġr upt
one us
Ġ5 0
Ġ2 3
Ġper ian
Ġper manent
ph ia
ĠH ence
lo be
ord ing
Ġfib er
uc tions
uc tive
our s
our th
og ical
ula ted
umb osacral
Ġinter p
Ġinter est
Ġinter carpal
Ġinter tubercular
ys teros
ag on
ag inal
ĠIn testines
ons illar
ip ito
ĠI le
Ġra ther
Ġsub mental
Ġsub deltoid
ear ed
ear ch
per matic
ĠV erteb
ĠV isual
ĠV agus
ĠN ew
ĠN ormal
ĠN ode
ĠR et
for t
Ġti ght
Ġti ps
st atic
st retch
st udents
tach ed
Ġcomp leted
Ġres tric
Ġres piration
Ġres pectively
ĠAbdom inopelvic
ort uous
vers ed
Ġsection al
ĠO mental
ĠO rigin
ĠO culomotor
Ġcon duct
Ġcon sequ
Ġcol le
Ġlong issimus
ain ed
ast rocnemius
Ġtra verse
Ġpla ce
fer ences
Ġac tive
Ġac ute
Ġsh unt
Ġsh allow
Ġfossa Ã¢
Ġili op
Ġse nds
Ġte ars
Ġte aring
qu amous
res ist
iscer a
Ġst abilizes
Ġmembran es
ond uction
ell ow
sp aces
Ġtri g
Ġrect a
Ġax io
Ġabdom inopelvic
Ġtib i
lu xation
Ġun cinate
Ġun ique
Ġun opposed
Ġcanal s
Ġinc omplete
Ġde fic
Ġde gener
occ urs
An ne
Ġexp iration
Ġrot ating
Ġrot undum
Ġpor to
erm an
Ġsens ations
iz ontally
ĠJ o
Ġcereb ro
Ġcl oses
itone al
Ġsystem s
Ġnas opalatine
ex tends
Ġad nexa
Ġarm s
Ġen ough
Ġen ema
Ġch ronic
Ġch oroid
Ġcompartment Ã¢
cap s
Ġmes entry
Ġter tiary
Ġinj ection
Ġbre adth
Ġpre ferred
Ġbronch ial
Ġgen ito
Ġgen ioglossus
Ġgen erally
19 48
Lateral ly
Ġap art
Ġap ical
Ġcoron oid
Ġlab ium
Ġes tab
Ġbut tock
Ġtriangle s
imp osed
teryg oid
ak er
Ġ9 5
Ġstern oclavicular
are olar
Ġcor pora
ĠEx tensor
Ġpub ococcygeus
Ġpub orectalis
Ġpalmar is
Ex tensor
Ġed uc
Ġcontinu ity
Ġser ves
Ġser ious
opha geal
lin ically
Ġmusc ulature
17 0
duc ed
pro f
illustra tion
Ġradi ates
Ġmar ginal
par otid
par ietal
sub lingual
Ġanastom otic
Ġtemporal is
Ġsepar ately
view ers
ondy lolysis
Ġdiaphragm atic
Ġacc um
Ġacc ommodate
Ġacc ording
oul nar
Ġcalcane onavicular
ca ud
ca val
Ġbul ges
Ġinclud es
Ġcolumn s
Ġmy otatic
ant ly
gra y
Ġy aw
ĠSer ratus
Ġsacro iliac
Ġsec re
Ġinfra orbital
Ġinfra patellar
comp ression
comp artments
igur es
Ġvar ious
Ġvar iation
Ġvar iations
Ġcontra ctions
flex ed
with in
Ġmalle oli
etab ular
ĠIm age
Ġpleura e
abdom en
abdom inis
Ġadduct ed
Ġtes ting
Ġbulb ospongiosus
Ġquad rant
Ġquad riceps
Ġ200 0
rect us
test inal
Ġasce nd
Ġthick ness
Ġcub onavicular
Ġhor ns
Ġdist ribut
Ġconn ected
Ġbound ing
Ġbound ary
Ġbound aries
Ġer ection
Innervation a
yp ical
Ġout side
Ġout flow
Ġsig n
Ġsig nific
Ġpres er
Ġinvol ve
ephal y
ephal on
Ġlevator es
Ġlongitudinal ly
Ġsole al
Ġneur on
Ġneur ocranium
Ġtrapez oid
io anal
ind ic
ĠSub cutaneous
Ġconve y
Ġchan ge
Ġblock s
Ġblock age
Ġpe eled
ĠClin ically
peritone ally
Ġterminal e
Ġterminal is
con dition
cont inu
Ġabduct s
Ġcr ura
Ġsurg ery
Ġile ocecal
Ġcorac o
Ġfree ly
Ġoss icles
enc ephalon
Ġped icles
lamm atory
ĠMass achusetts
ĠArticular is
Ġprovid ed
Ġcondy les
Ġretinac ula
Ġchild hood
ĠPh ila
Ġact s
Ġthere fore
Ġph otograph
Ġcal iber
ector ial
une onavicular
Ġpers ists
Ġcaud a
Ġweak ness
Abduct or
Sub clavian
ĠPro fessor
Ġcompress ed
Ġrotator es
Ġabs ence
Ġabs orption
Ġimport ance
Ġble eding
Ġorific es
Long issimus
ger y
long us
Ġdepress es
ĠSupra hyoid
ĠSupra scapular
Ġpath ways
mo hyoid
Ġstra ight
Ġswall ow
ĠUl nar
Ġkn owledge
Supra orbital
aud itory
ie f
tri angle
Ġmam m
Ġdam aging
ocol ic
Ġunilateral ly
Ġrefle cts
Mid axillary
tw ork
Ġpup illae
Ġche wing
Ġemb ry
Ġemb edded
Ġarc ades
ĠFlex or
Ġhel p
Ġacrom ioclavicular
Ġdraw n
Ġdraw s
Ġdraw ings
Ġaddition al
ito ba
plexus es
Ġme ans
ĠLay er
Ġary epiglottic
Ġvul va
Ġlea ves
Ġmuscul otendinous
Med ulla
met acarpal
sur rou
sph enoid
radi us
Ġdep ression
anastom osing
omet acarpal
abili ze
Ġvas ocons
ĠEnd oscopic
ĠSupp ort
seg mental
pend icular
Ġencl oses
frontal is
Ġu v
Ġu tricle
Ġstr ength
Ġtentor ial
ĠSection al
Ġjejun al
ĠInfra hyoid
ĠOss icles
Di rect
cross es
cross ing
rup tion
Ġir is
Ġpur ple
Ġpur poses
Ġwind s
ĠDe velopment
ĠFoot Ã¢
Ġlacer ation
Ġlacer ated
ĠPal ate
ĠInter vertebral
ĠInter mediate
Ġcontract ure
Ġposterolateral ly
Ġdemarc ated
Ġossif ied
Ġsimilar ly
Tra pezius
del topectoral
del phia
uffic iency
Ġpromin ent
Ġpromin ence
ĠAc etabular
Ġiniti ally
ĠStern ocostal
ongi osum
ĠUre ter
ĠUre thra
Ġrh omb
Ġrh inorr
ĠVal ves
Ġsequ ence
Ġstu died
Ġincis or
Ġminim i
contra st
Ġtransmit ted
Ġdorsiflex ion
Actions a
trochanter ic
Ġsut ures
rot ator
ĠCar olina
ham ate
Ġnec rosis
Ġnec essary
ĠDig ital
Ġemp ty
Ġequ ina
ĠSur gery
ĠUr inary
viscer a
Ġoccup y
Ġposteroinferior ly
Ġmaintain ing
append icular
Ġintro duction
separ ated
Isch ial
MRI s
Pal ato
Tens or
bic eps
eye ball
sup er
ventric le
istic s
ĠTerm in
anes thetized
ĠLob es
Ġhams tring
ĠInf ection
ĠVestib ulocochlear
Ġdeter mine
lind rical
Thorac oabdominal
Ġindepend ently
ĠRotator es
Quad ratus
Ab out
Al though
Lac rimal
Sup ratrochlear
pers ons
Ġens ure
Ġol der
Ġsle nder
ĠApp roximately
Ġcong enital
lac rimal
roph y
ĠLung s
ĠDi vision
ĠSem inal
ĠGe orge
Ġarteri osum
Ġspondy lolisthesis
Ġjaw s
Ġrare ly
Ġaltern ate
Ġobser ved
Ġcollic ulus
Ġshould ers
quet rum
narrow ing
appear ance
Ser ratus
bur gh
deg ener
pur ple
Ġaff ects
align ant
Ġsella e
Ġmat ter
Ġtro chlea
Ġemin ence
Ġlod ge
ĠEs ophagus
ĠPle ura
Ġspeak ing
Ġdiame ter
ogen ic
Ġack nowledge
alping ogram
Ġgrad ual
ophthalm os
ĠChar les
Ġidentif y
Temp oralis
Ġpyramid al
ĠLaryng oscopic
hemisph eres
App eared
Emer ges
Zyg omatic
eeg an
hipp ocam
magn um
xyg en
Ġaque ous
Ġoro pharynx
Ġsinu atrial
Ġsug ges
ento us
Ġpower ful
rasion s
Ġcrem aster
Ġfeat ure
Ġinad vert
Ġinstrum ent
rioc ep
Ġtric uspid
attemp t
ĠDentis try
Ġanteroinferior ly
dimens ional
ĠBoile au
ĠSph enoid
ĠSple en
Ġperian al
ysteros alpingogram
ipito frontalis
ĠPhila delphia
Ġrhinorr hea
% )
) :
2 23
2 29
A A
A R
A d
A p
A ss
A fter
B Ã¢
B rainstem
B ucc
B asilar
C B
C P
C l
C al
C ur
C an
C oron
C orac
C ross
C lavicular
D V
D eltoid
D ouble
F loor
F ract
F emoral
F ollow
H ams
I ts
I As
J oint
L ymp
L ocation
L umbricals
L arge
M a
M uc
M ental
N as
N ucleus
N umerous
P A
P ect
P ons
P opliteal
P alatine
R upture
S A
S ection
S econd
S inai
S timulation
T hy
T eres
U HN
U sually
V isible
a ti
a ir
a zygos
b es
b an
b ul
b urs
b itis
b oth
b ilateral
b lock
b rainstem
b irth
b rachialis
b orders
b arium
b icularis
c in
c to
c ontents
c ut
c ule
c ranium
c ourse
c lavicle
c ardiac
c ofemoral
c lavius
d es
d ing
d ep
d et
d rainage
d ark
d raw
d rooping
e ight
e lastic
f ix
f luid
f old
f ilum
f illed
f ascial
f ovea
g o
g u
g la
g an
g ut
g iv
g row
g enital
g reen
h o
h ib
h allux
h ysterosalpingogram
i et
j unction
j ugular
k i
k s
k ed
l d
l ope
l umbosacral
m ale
m ening
m enis
m astoid
m ovement
n is
n id
n owled
n ormally
n atal
o il
o di
o ft
o hypogastric
o arthri
p y
p ic
p up
p ap
p ite
p ars
p lan
p asses
p ressure
p ato
p erex
p ometacarpal
r us
s urfaces
s agittal
s kin
s acral
s ynd
s aphenous
s econd
s acro
t ack
t ongue
t book
t reated
u ght
u ation
u ising
v ent
v an
v ocal
v ious
w ear
w eight
y ear
y ears
Ġ x
Ġ useful
Ġ essential
er a
er ty
th ree
th ird
th enar
th rosc
Ġa m
Ġa ro
Ġa id
Ġa mb
Ġa ud
Ġa ges
Ġa mo
Ġa ffect
Ġa limentary
in n
in or
in ated
in nerv
in fer
in ations
in fra
in dividual
in jury
in vesting
in burgh
al ed
al veolar
al ocalcanean
Ġo ur
Ġo range
Ġo mohyoid
Ġo xygen
Ġth erapy
or a
or ed
or an
or ific
or opharyngeal
or atory
or ectal
or ld
nd Ã¢
le g
le y
le en
le bitis
ar ti
ar ning
ar ring
Ġs to
Ġs our
Ġs ys
Ġs ynap
Ġs amp
Ġs ufficient
es ophagus
es ions
es ophageal
en z
en es
ti p
ti ally
ti fer
Ġp es
Ġp ha
Ġp ons
Ġp elves
Ġp ump
ra d
ra dial
ra diograph
ra mus
ĠA ortic
ĠA ber
ĠA SIS
ĠA limentary
ĠA uricle
is thmus
Ġc ent
Ġc ri
Ġc ir
Ġc ement
Ġc rista
us s
to s
to ward
to gether
Ġf all
Ġf alc
Ġf unnel
Ġf ren
Ġf illed
Ġf uses
Ġf ontanel
Ġb ar
Ġb es
Ġb ow
Ġb olus
Ġb ind
Ġb ene
Ġb acter
Ġb ifid
Ġb alance
la cer
la tissimus
Ġm ight
Ġm alignant
Ġin v
Ġin ward
Ġin direct
Ġin put
ed ition
ed ius
ed ema
ic a
ic le
ic ian
ic ted
ro ot
re te
re tra
re gular
it ates
it ating
it antes
he l
ent ations
ent uck
os tr
os ity
os ures
os ynov
ĠC l
ĠC ran
ĠC ont
ĠC enter
ĠC irc
ĠC arpal
ĠC ardi
ĠC osto
ĠC ommon
ĠC urv
ĠC onduction
ĠC uneonavicular
li quus
ĠT ib
ĠT riceps
ĠT rigeminal
ĠT rac
ĠT entorial
ĠT alocalcanean
Ġd s
Ġd es
Ġd ent
Ġd ec
Ġd ys
Ġd ental
ac us
ac em
ac ting
ac cessory
ac arpophalangeal
ac ulty
ha t
Ġto ol
Ġto tal
ec tom
an atomy
an terolateral
Ġn ow
Ġn ipp
Ġn ostr
ul osis
ul ohumeral
ul ci
as h
as ed
as seter
as tole
up lic
up uy
ĠL ac
ĠL ong
ĠL ex
ĠL ingual
ĠL esser
ĠAn al
ĠAn teromedial
id ent
am in
am ic
Ġt one
Ġt est
Ġt ail
Ġt aste
Ġt aper
Ġt ectorial
at a
at lanto
at tached
ĠD rain
ĠD iss
ĠD ental
ĠD ouble
ĠD uck
ĠD amage
Ġan t
Ġan us
Ġan ch
Ġan atom
Ġan ser
Ġan terosuperior
Ġan ococcy
Ġan trum
Ġe nding
Ġe verted
ĠM il
ĠM any
ĠM andible
ĠM ovements
ĠM ark
ĠM etatarsophalangeal
Ġar rangement
Ġar twork
ch orda
op er
Ġre al
Ġre ac
Ġre ad
Ġre lev
Ġre pa
Ġ1 3
Ġ1 16
cle s
di fficult
tic ip
Ġsup ratrochlear
Ġsup raglenoid
ab er
ab normal
ab ella
Ġv ision
ĠF ace
ĠF low
ĠF orm
ĠF ractures
ĠF ourth
Ġl ist
Ġg al
Ġg all
Ġg ut
Ġg ag
Ġg ive
Ġg lid
Ġg onads
ad ult
ĠB ed
ĠB ro
ĠB Ã¢
ĠB arium
ĠE li
ĠE ye
ĠE mer
ep icondyle
Ġla st
ĠS h
ĠS k
ĠS ome
ĠS ites
ĠS VC
ĠS outh
ĠS permatic
ĠS nid
ĠG lans
ĠAr ch
ĠAr ens
ĠAr rangement
ĠAr ches
Ġli ght
alle st
ĠAt lanto
20 5
inc e
ĠP ers
ĠP ost
ĠP soas
ĠP terygopalatine
dition al
inal ly
ol factory
ol ution
Ġsp orts
Ġsp ongiosum
se where
Ġle ast
Ġle ns
Ġle arning
Ġex ist
In c
In guinal
In cis
Ġma ps
Ġma king
Ġma kes
oc ele
oc iation
od orsal
Ġpro per
Ġpro ject
Ġpro be
Ġpro portion
Ġhe aring
Ġhe av
vic es
tr en
tr un
tr ings
tr uctions
Ġat tack
Ġh ist
Ġh uman
ap end
ut ure
ir es
Ġby pass
Ġdis order
Ġdi ffer
Ġdi vertic
Ġdi lation
Ġdi vide
Ġdi amond
Ġdi lates
ach es
ĠU HN
ĠU sually
Ġcom e
Ġcom ments
Ġon line
Ġr ich
Ġr ises
ce ed
Ġ2 1
Ġ2 4
Ġ2 5
Ġmuscles Ã¢
Ġper istal
Ġper pendicular
Ġha ving
Ġwh om
Ġwh ole
ph yses
ure ter
fic ation
tend ons
ĠH and
ĠH ere
ĠH ypoglossal
ĠH omolog
Ġca ve
Ġca ge
verteb ra
asc ulature
Ġfib ro
Ġcar ry
Ġcar cin
Ġcar pometacarpal
og ni
ax is
ax illa
Ġsc arring
Ġinter lock
Ġinter val
Ġinter articular
Ġinter chondral
ys tic
ys ms
ĠIn c
ĠIn jury
tra ction
tra uma
tra son
ili um
ili otibial
Ġdeep ly
ĠI li
Ġsub ject
Ġsub talar
Ġsub luxation
Ġregion al
per t
per for
per formed
section s
ĠV M
ĠV entricular
ĠV iscera
ĠV asculature
ĠN uchal
ud ent
ĠR oc
ĠR oss
Ġcan ula
tes tis
Ġform ations
Ġcomp onent
Ġcont ent
cer ned
Ġres orb
Ġpar ac
Ġpar anasal
Ġpar arectal
Ġpar asternal
ni x
Ġmid way
Ġmid axillary
Ġmid palmar
Ġmid carpal
Ġob long
ĠO ntar
ĠO phthalmic
ĠO cular
Ġcon to
Ġcon cerned
ĠPer ineal
ĠPer icardium
ĠPer itoneal
Ġtend initis
Ġflex ing
enter s
enter ies
embran ous
Ġk ey
Ġk yphosis
Ġrem ove
Ġits elf
und ers
rat ed
Ġinternal ly
Ġtw elfth
ogra ms
Ġpla n
Ġpla cing
Ġsh are
Ġsh aring
Ġcer tain
Ġsac cule
Ġili ofemoral
Ġse ven
res ult
tis ts
Ġsuperficial ly
Ġst ab
Ġst ages
Ġst roke
Ġarch ed
ticular ly
ell ing
sp len
sp ring
form ing
form ity
Ġax es
hy d
hy perex
omp son
Ġup d
Ġul cer
Ġinf lammatory
Ġven osus
Ġcap illaries
Ġun able
Ġun common
Ġun pa
Ġun affected
Ġun ited
Ġun treated
Ġinc us
Ġde ath
ob struction
occ luded
Ġtransverse ly
mar gin
An gular
Ġrela tive
Ġviscer ab
Ġexp osures
Ġlayer Ã¢
ars eness
Ġco li
Ġco arctation
zyg omatic
Ġpharyn g
Ġnod al
Ġnod ule
Ġrot ary
Ġmet atarsophalangeal
iz es
ĠJ W
ĠJ CB
Ġhand le
Ġapp lic
Ġapp lied
Ġcereb ri
Ġcl ar
Ġcl os
Ġcl ot
Ġpect en
Ġpect ineal
ex t
Ġad min
Ġso und
ile d
Ġenter ed
end er
Ġorb its
Ġpos terosuperiorly
ĠDeep er
Ġvag al
ticula te
Ġen circ
Ġch est
Ġch ief
Ġcons ist
Ġcons triction
alcane al
lar ge
Ġmes o
Ġmo tion
Ġdia gon
round ed
10 2
ten tion
Ġextens ors
Ġpre m
Ġpre trache
Ġgen iculate
19 0
ract s
Ġlevel s
Ġhem atoma
loc ated
Ġlab el
Ġlab ia
oth oracic
Åĵ p
tib io
row s
reas es
Ġang iograms
Ġang iography
med iastinum
med iastinal
Ġ9 0
ĠArter iograms
Ġcor e
Ġcor ner
Ġcor rect
Ġdire ctions
ele v
ĠEx tent
ĠEx cised
Ġpub erty
Ġab ility
Ġab rupt
Ġend oscopic
Ġend oscope
Ġser ve
Ġser ving
lin ed
lin ing
Ġexc itation
Ġel ic
Ġel sewhere
pro cess
pro static
illustra tions
roc artilaginous
15 8
par alysis
par tially
par ticularly
pos ing
pos tsynaptic
lid ing
Ġsupra hyoid
Ġsupra spinous
Ġsupra condylar
40 9
sub mental
sub tendinous
sub arachnoid
sub scapularis
scap ula
scap hoid
Ġlob ar
Ġimp aired
Ġdisc rete
occy geal
ca uses
ca vities
Ġback Ã¢
Ġmuc os
Ġ19 0
Ġ19 40
Ġ19 43
Ġ19 93
Ġass ist
Ġass ociation
Ġfract uring
Ġcolon oscopy
enti ally
Ġbas al
Ġdo uble
Ġrec ti
Ġrec oil
ĠAttachment a
gn ant
Ġqu arter
Ġmy otomes
rem ature
Ġgra y
Ġgra ft
Ar ch
Ar thur
Ġsem icircular
Ġsem ilunar
vol ume
vol untary
abd uct
ept or
Ġother wise
Ġlac tifer
comp ress
wall owing
Ġvar ies
Ġvar ie
Ġvar icose
Ġov aries
head s
Ġbulb s
Pro tr
Ġ200 6
Ġurethra e
ĠK idneys
Ġinnerv ate
Ġinser t
red is
Ġhor izontally
Ġdist ance
Ġdist urb
Ġconn ections
69 9
Ner ves
Ġreveal ed
Ġpterygoid s
olog ic
olog ically
Ġcommunic ation
Ġcommunic antes
Ġneur ological
cl ose
cl era
io hyoid
io vertebral
ind ing
Ġsuper imposed
traso unds
Ġsegment ed
Ġsegment ation
Ġvalve less
de velopment
sh own
Ġretro pharyngeal
Ġorigin ating
Comp ar
Comp are
Ġcys t
lat ysma
val ves
val uable
Ġdermatom al
Ġanterolateral ly
Ob liquus
Ġintra peritoneal
Ġile ocolic
Ġreach es
pharyn gotympanic
ful ly
Ġped ag
Ġdisloc ations
Ġdispla yed
Ġclin oid
Ġchild ren
Ġchild birth
Ġbifurc ating
vertic ulosis
resp onsible
col on
supp orted
Ġph ysical
Ġradiograph s
Ġenlar ges
Flex ion
co un
co chlea
Ġsli ps
ĠAx is
ĠAx illary
Ġfunction al
ulti fidus
Ġexam ine
For ms
Gen iculate
Sub cutaneous
can cer
Ġos te
ĠDia gnostic
oph lebitis
ĠPro ximal
Ġcompress or
Ġcompress es
Ġcompress ing
va ila
Ġble ed
Ġble nds
Ġher nia
Ġher niation
Ġperi od
Ġperi arterial
Ġcontain ed
Long us
long itudinal
Ġpap illa
Ġpap illae
Ġcur ve
ĠSupra spinatus
ĠPar otid
ĠPar asympathetic
Ġextra vas
Ġextra hepatic
Ġpath ological
pass ing
pass age
ener vation
ĠCol lateral
ĠComp artment
Ġnarrow est
Ġtens ion
dig ital
ĠUl trasounds
Ġdef ects
Pla tes
Supra scapular
Supra clavicular
ba um
tri tion
tri quetrum
aspect s
Ġtyp es
Ġtyp ical
Ġrecess es
Mid clavicular
circ ulation
gangli onic
vag ina
artila ge
Ġins et
Ġins ufficiency
Ġtak e
Ġelev ated
ĠFlex ed
Ġlike ly
Ġcontin ually
Ġparalle ls
ĠOr bit
spec imens
Ġgroup s
Ġapproach es
Ġlabyrinth s
Adduct or
my lohyoid
my otome
my ocardial
Ġcenter s
Ġlea ving
theti zes
Ġbox Ã¢
Ġtermin ation
diaphragm atic
ail s
ber g
cons trictor
met acarpophalangeal
Ġdep icted
anastom ose
ĠEd itor
ĠEd inburgh
ĠSupp ly
ĠSupp lied
ĠPos teromedial
seg ment
Ġtravel s
produc ed
Ġvari ability
communic ate
communic ates
Ġloop s
Ġexpansion s
Per itoneum
cor respond
cor nea
sep tum
Ġav ascular
Ġpo uch
Ġcha in
Ġbed s
Ġmer ges
Ġrepla cement
ĠFor earm
Ġgem elli
Ġstretch ing
Ġepid ural
Pos teroinferior
bronch ial
muc osa
vas ion
Ġent ry
Ġir regular
Ġabd ucent
org ans
arch es
Ġwid th
Ġwid ens
Ġwid ening
ĠMan itoba
Ġdisapp ear
Ġpalato glossus
Ġmetast ases
Ġdemarc ate
Ġchann el
Ġfail s
ĠTemp oralis
Ġnetwork s
Ili acus
Re gion
cr uciate
ug ust
Ġz ones
Ġrid ges
Ġadd ed
ĠAc cessory
Ġcy lindrical
Ġiniti ates
rec urrent
Ġgo iter
ĠSc alp
ĠStern um
ĠSeg ments
ĠPect oral
ĠVal vular
Ġsequ entially
Ġincis ors
Ġrelax ation
Ġminim al
contra ction
ĠDiaphragm atic
Ġherni ated
Ġdorsiflex ed
panc reatic
supra spinatus
inf lammation
Ġcre ating
uric ulotemporal
ĠTrans rectal
Ġden se
Ġden ticulate
ĠDig estive
Ġanteromedial ly
Ġemp ties
Ġga it
Ġgiv en
Infra orbital
ĠUr ban
viscer al
Ġcontribu tions
Ġappar ent
ĠRadi ocarpal
Ġpiec es
Ġweek s
Ġperiph ery
Pal mar
Sm all
Tens es
bic ipital
bre vis
ventric les
Ġfe el
Ġfe et
Ġbud s
ĠCo ils
ĠLob e
Ġeff ects
ĠBronch i
ĠBronch ograms
ĠSp ondylolysis
ĠGra sp
Ġlig ation
ĠPortal Ã¢
Ġexper i
Ġhams trings
Ġresp onse
Ġoccurr ed
Ġoccurr ing
Ġcoat s
lind ness
Ġexcep tion
Ġexcep tions
Ġindepend ent
Ġpati ent
Ġpati ents
cover ing
Plantar flexes
sphincter ic
Ġmetastas ize
SD s
car otid
join ing
ĠY ork
Ġsw ollen
Ġfrequ ent
Ġfrequ ently
Ġbrid ges
lap se
Ġmechan ism
ĠTend ons
ĠTend inous
rip tive
omed iastinal
Ġanc oneus
Ġanomal y
Ġanomal ous
opening s
ĠPre gnant
Ġlet ter
Ġlet ters
Ġlead ing
Ġinterdig itate
ĠRib s
Ġtil ts
Ġcontribut es
Ġteach ing
Ġstap es
Ġstap edius
Ġconsider ed
rosc opic
Styl oid
Ġyoung er
Hel ps
Im aging
Transvers alis
Weak ness
bel ly
brach ii
bifurc ation
dors i
fac et
hor izontal
pul led
pron ator
rh osis
sm ooth
Ġoper ation
Ġsha ft
Ġmic ro
Ġmod er
accomp any
ĠDesc ent
neur ovascular
eph ric
ĠSup ination
Ġprop riocep
ĠIns titute
Ġrad icular
Ġrod s
Ġobtain ed
Ġobstruct ed
Ġtender ness
Ġtrabec ulae
Ġexpand ed
Ġadvanc ed
Ġbreak s
conn ecting
Ġfascic ulus
Ġosti a
Perfor ating
Ġelect ronic
skele ton
Elev ate
Occ ipital
Supp lies
corac oid
dem onstra
tub e
war zen
Ġamp ulla
Ġsimp le
Ġstim uli
Ġsymptom s
Ġcada vers
Ġfal x
laps es
ĠCr uciate
ĠTop ography
Ġdri ven
tempor omandibular
asce nding
Ġtech ni
otal ar
opa que
ophy seal
dire cted
epid ural
epicondy lar
ĠSchem e
ĠSci ence
Ġext rem
Ġrupt ured
Ġinterp ret
ĠIle ocecal
ĠVerteb rae
Ġrestric ted
Ġiliop soas
resist ance
Ġtrig one
Ġaxio apend
Ġdegener ative
Ġporto caval
ĠJo hn
Ġcerebro spinal
Ġgenito femoral
Ġyaw ning
Ġdistribut ed
Ġsignific antly
indic ated
Ġcoraco acromial
Ġmamm illary
Ġembry onic
metacarpal s
ĠSupport ing
Ġuv ula
Ġinadvert ently
Ap oneurosis
Ass ists
Corac obrachialis
Cross es
DV R
Fract ure
Hams tring
Lymp hatic
Ma jor
Pect oralis
Thy ro
oarthri tis
pup illae
Ġaro se
Ġamb ig
Ġaud itory
Ġamo unt
oran ge
Ġsys tole
Ġpha se
ĠAber rant
Ġcent rum
Ġcir rhosis
Ġfalc iform
Ġfren ulum
entuck y
osynov itis
ĠCran iovertebral
ĠCosto vertebral
ĠCurv atures
ĠTrac hea
acem aker
Ġnipp le
upuy tren
Ġtaper ing
Ġanococcy geal
Ġrepa ir
ĠSnid erman
ĠArens on
ĠPers aud
ĠPost natal
Ġheav y
ĠHomolog ous
Ġinterlock ing
trason ography
ĠOntar io
hyperex tension
Ġunpa ired
Ġadmin is
Ġencirc ling
Ġpretrache al
tibio tic
Ġlactifer ous
Ġvarie ties
vaila ble
Ġpropriocep tion
Ġaxioapend icular
* *
/ /
1 20
1 19
1 49
1 44
3 12
3 19
5 27
6 11
6 25
7 15
9 7
9 9
: //
A D
A V
A re
A pex
A utonomic
A SIS
A uriculotemporal
B y
B le
B ic
B ack
B lood
B urs
B oth
B ound
B odies
C h
C o
C ol
C ons
C rest
C linically
D on
D ec
D ors
D ep
D epartment
D orsum
D escending
D raw
D upuytren
E R
E JV
E ffect
E ding
F L
F our
F ibular
F ive
F igure
F ractures
F aculty
G V
G u
G er
G rant
G ives
G uy
G reen
G onads
G lans
G astrocnemius
G liding
H umer
H ard
H owever
H earing
H epatic
I X
I nd
I JV
I Ps
I rritation
J os
J unction
K nowledge
K eegan
K enz
L A
L S
L a
L i
L oc
L aryn
L ingual
L CA
L ittle
M c
M et
M ass
M ening
M uch
M olar
M andible
M inor
M asseter
N S
N asal
N arrow
N uchal
N eur
O f
O ne
O val
O elrich
P M
P is
P ur
P ressure
P udendal
P ubic
P opliteus
P terygoid
P remature
P latysma
R S
R a
R h
R ec
R CA
S V
S ur
S ep
S urface
S ystem
S tructure
S CM
S VC
S clera
T ip
T oronto
T end
T riceps
T uber
T onic
T eeth
T IAs
U r
U niversity
U nder
U mbilical
V e
V as
V ia
V ocal
V ision
V agus
W il
W ide
W est
a h
a z
a ur
a ther
a ff
a way
a vern
a tively
a uricle
a unders
b g
b on
b ra
b ed
b il
b as
b ach
b and
b ack
b und
b low
b eat
b ile
b earing
b lack
b ottom
c y
c re
c he
c ones
c ond
c ourtesy
c han
c entral
c alled
c ept
c ells
c rest
c ise
c ephalic
c lavipectoral
c ircle
c uate
c ubital
c erebell
c artilages
c linically
c ystic
d o
d al
d ec
d ay
d ust
d ise
d uate
d orsum
d otted
d rop
e u
e ve
e ff
e fferent
e lat
e ffect
f ace
f ere
f ibular
f irst
f ail
f ibularis
f ractures
f ragment
g y
g le
g ic
g um
g id
g rant
g ments
g ones
g ree
g ans
g ulate
g ency
g roup
g lenoid
g astrocnemius
h ous
h igh
h ou
h eres
i able
i ft
i ates
i vid
i omed
j e
j o
j ian
j ected
j ejun
k en
k am
k iew
k idneys
k yphosis
l w
l is
l la
l occ
l ton
l ucent
l unate
l van
m i
m ont
m ax
m ain
m ust
m olar
m eatus
m oclavicular
m obile
m ission
m ultifidus
n o
n one
n ate
n iate
n avicular
n ants
n aculum
o tion
o verview
o anteriorly
o arytenoid
o hamate
o lacrimal
o arseness
o jejun
p at
p able
p od
p ment
p oss
p ose
p ost
p read
p soas
p rimary
p enet
p lastic
p terion
p rimitive
p tosis
p neum
p terygoid
r one
r ue
r enal
r inding
s w
s ic
s it
s he
s ha
s hap
s Ã¢
s ternal
s uch
s ome
s ural
s chematic
s ize
s ign
s ymphysis
s ensation
s welling
s udden
s ocket
s timulation
s atlas
s addle
s wallowing
t p
t one
t ant
t unnel
t orn
t ributaries
t arsometatarsal
t onsillar
t ortuous
t tp
u us
u it
u ver
u ffer
u ild
u ish
u itary
v us
v ening
v uls
w alled
w eak
x es
x ity
x orn
x tbook
y x
y oglossus
y seal
y ellow
y lvan
z ab
Ã ĥ
Ġ +
Ġ /
Ġ ec
Ġ ri
Ġ rou
Ġ ide
Ġ very
Ġ Quad
Ġ Zygomatic
er t
er v
er ature
er ie
er ectile
th in
th us
th ro
th ep
th em
th ral
th ick
th oscope
th romb
Ġa th
Ġa li
Ġa im
Ġa qu
Ġa vailable
in x
in terior
in ates
in ant
in vol
in ability
in torsion
in testinal
al d
al ak
al most
al ene
Ġo to
Ġo cular
Ġo titis
Ġth ro
Ġth erap
Ġth rust
Ġof fic
Ġof fer
or ec
or ne
or ner
or tions
on a
on us
on ens
on itis
on titis
nd mar
ter m
ter ing
ter ne
ter ated
ter min
ter ectomy
ter tiary
le ys
le ction
le ase
le ak
le ctions
le ads
ar mp
ar ative
ar ginal
ar tos
Ġs en
Ġs il
Ġs om
Ġs ag
Ġs yn
Ġs que
Ġs wing
Ġs inuous
Ġs lack
Ġs olitary
Ġs timulation
Ġs lower
Ġs lop
Ġs addle
Ġs earch
Ġs lope
Ġs uffer
Ġs terne
es is
es Ã¢
es thetic
es cap
es ho
en th
en ia
en ced
en ns
en cl
en ign
en ables
en baum
en nate
ti e
ti se
ti tive
ti vity
Ġp g
Ġp ra
Ġp li
Ġp ia
Ġp ig
Ġp ost
Ġp iv
Ġp unct
Ġp ortacaval
Ġp rincipal
Ġp neum
ra st
ra ction
ra ced
ra ck
ra phe
ĠA nd
ĠA ss
ĠA mer
ĠA sch
ĠA cting
ĠA lab
ĠA bs
ĠA ugust
is c
is ch
is ms
is cons
is ville
Ġc one
Ġc ate
Ġc ast
Ġc row
Ġc limb
Ġc hemis
Ġc ours
Ġc reases
us ing
us ual
us ae
us trum
ur ni
ur ysm
Ġf la
Ġf ri
Ġf ine
Ġf ans
Ġf les
Ġf iss
Ġf ever
Ġf iel
Ġf ovea
Ġf irm
Ġf igures
Ġf abella
Ġf locc
Ġb ent
Ġb all
Ġb ip
Ġb row
Ġb ears
Ġb ring
Ġb lack
Ġb ottom
Ġb orne
la is
la ce
la ined
Ġm ac
Ġm ere
Ġm ane
Ġm asses
Ġm atri
Ġm obile
Ġin ver
Ġin ves
Ġin vertebral
Ġin ade
Ġin ability
Ġin side
Ġin divid
Ġin vag
Ġin directly
Ġin duced
Ġin testinal
Ġin hib
ed Ã¢
ed uct
ed uctive
ic z
ic on
ic itis
ic uli
ro ved
ro duodenal
re y
re nd
re ce
re fer
re lated
re placement
re viewers
it lin
it orum
it onitis
he ther
ent le
ent esis
os ynaptic
os pinalis
ĠC ro
ĠC ap
ĠC ates
ĠC ell
ĠC ereb
ĠC red
ĠC over
ĠC alcaneal
li x
li ps
li ths
ĠT E
ĠT ract
ĠT orr
ĠT ributaries
ĠT ype
ĠT eeth
Ġd om
Ġd el
Ġd ens
Ġd og
Ġd ull
Ġd uoden
Ġd ry
Ġd rin
Ġd ark
Ġd roop
Ġd rooping
Ġd enervation
ac c
ac com
ve led
ha ms
ha bil
Ġto p
Ġto es
Ġto un
Ġto ugh
Ġto day
Ġto urni
ran ged
ran cis
il t
il us
il lo
il ymph
ec e
ec ation
an atomical
an teromedial
an omalies
an tebrachial
an iel
an orectal
an hyd
ing e
ing ton
Ġn or
Ġn our
Ġn otic
Ġn ail
Ġn ext
te ad
te eth
te mber
ul lar
ul trasound
ul na
ri ption
as p
as ian
as tication
as ymmet
um s
um ps
um mary
um cised
ĠL J
ĠL ou
ĠL ocation
ĠAn y
ĠAn atom
ĠAn ular
ĠAn omal
ĠAn teroposterior
id uous
am a
am es
am ination
am mary
am kiew
Ġt ors
Ġt rough
Ġt ones
Ġt unic
Ġt app
Ġt arsometatarsal
Ġt ortuous
Ġt onus
ĠW B
ĠW ar
ĠW all
ĠW ay
ĠW here
ĠW inn
ĠW iscons
at ry
at tachments
om an
om ohyoid
om fort
Ġw a
Ġw ear
Ġw ater
Ġw earing
Ġw orld
art s
ĠWil lis
ĠD uodenum
ĠD eductive
ver ticula
Ġan terosuperiorly
Ġan teroposterior
Ġan tibiotic
Ġe f
Ġe ver
Ġe ase
Ġe igh
Ġe vid
Ġe ight
Ġe vent
ĠM G
ĠM S
ĠM c
ĠM ar
ĠM un
ĠM use
ĠM otor
ĠM andibular
ĠM ission
ĠM embranous
Ġar rest
Ġar thri
Ġar ranged
ch oroid
op ened
op ath
Ġre qu
Ġre nder
Ġre trude
Ġre versed
di mp
di fferent
di olus
di lated
di amond
di encephalon
ins ide
ĠLi fe
el ogram
el eration
tom arginal
tic k
tic ally
Ġsup ination
ne ar
ont inuous
ab ling
ab olic
ab rasions
Ġv om
Ġv ib
Ġv ortic
ĠF A
ĠF D
ĠF E
ĠF acial
ĠF ibularis
ĠF inally
ĠF ender
Ġl ink
ors esho
atom as
Ġg uber
Ġg ood
Ġg elat
Ġg ums
ad ing
ad vanc
ad ditional
ĠB ur
ĠB lack
ĠB ifid
ĠE ss
ĠE ast
ĠE JV
ep tic
ep ts
ep ted
ep icardium
ep tember
Ġla te
Ġla mb
Ġla min
Ġla xity
Ġla ndmar
ĠThe ir
ĠS A
ĠS T
ĠS imp
ĠS omatic
ĠS ever
ĠS kin
ĠS esamoid
ĠS ingle
ĠS equ
ĠS ulci
ĠS aunders
ĠS ummary
ĠS eptember
em p
em in
em oved
ĠG ree
ĠG yn
ĠG ren
ĠG lossopharyngeal
ĠAr m
ĠAr t
ĠAr my
Ġli fe
rom a
rom es
rom ammary
ĠAt trition
inc ally
inc tive
inc ision
inc omplete
las sic
ess ed
ess ors
200 3
ĠP A
ĠP M
ĠP V
ĠP y
ĠP la
ĠP ub
ĠP ain
ĠP lexus
ĠP alp
ĠP rincip
ĠP rincipal
un ion
un common
un ules
ect able
ect ineal
ib ulum
ub b
Ġfor cing
Ġfor nix
et te
Ġsp urs
Ġsp ans
ge nds
se en
tern um
Ġas pirat
Ġas ymmet
mp erature
Ġex ec
Ġex its
Ġex tent
Ġex ophthalmos
mb ers
ation ary
In tra
In iti
In ability
In version
oc ular
oc ke
Ġmed iated
Ġmed ullar
od ine
Ġpro s
Ġpro ble
Ġpro lapse
Ġhe ard
Ġhe pato
Ġhe lix
vic e
all st
all owing
lex ion
Ġh ar
Ġh ow
Ġh its
Ġh ood
Ġh ope
Ġh inge
Ġh ocke
ap ex
ut ine
ir enal
Ġdis ting
Ġdis ruption
Ġdis tention
tal k
tal ocalcane
Ġor der
Ġdi ffic
Ġdi vert
Ġdi fficult
Ġdi encephalon
Ġdi astole
ĠU ro
ĠU nder
ĠU mbilical
vis ed
vis ible
Ġcom min
Ġcom bined
Ġcom itantes
Ġr ising
ce eding
ce aled
Ġligam entous
im ilar
Ġpart ner
Ġper mit
Ġper itonitis
Ġha ustra
Ġha bit
and ing
and erb
Ġwh ist
Ġwh ite
ure thral
fic iency
pect ineus
Ġ6 0
Ġ6 1
ers on
ĠH er
ĠH erb
ĠH allux
ĠH aber
ĠH orner
lo bec
lo glossus
lo bes
Ġca ught
Ġ3 1
ĠTh us
ĠTh rough
ĠTh igh
ĠTh ompson
Ġfib rocartilaginous
uc asian
Ġcar ina
ov ary
ov arium
ov aginal
Ġinter s
Ġinter pre
Ġinter ming
Ġinter active
Ġinter sections
Ġinter fere
Ġinter lace
ys terectomy
Ġal ter
Ġal ar
oss if
ag ues
ĠIn iti
ĠIn cis
ons il
ner most
ip eg
ip uncture
tra pez
ili ohypogastric
Ġdeep est
mon th
mon ths
ĠI ts
ĠI rritation
Ġhead b
Ġhead ache
Ġhead aches
Ġra ise
Ġsub ple
Ġsub divid
Ġsub jects
Ġsub division
Ġsub mucous
Ġsub peritoneally
Ġsub fascial
Ġfem ales
Ġfem ora
ane urysm
section al
ĠV ar
ĠV erm
ĠV ascular
ĠV anderb
ĠN e
ĠN ot
ĠN eur
ĠN orth
ĠR P
ĠR adial
ĠR upture
ĠR oy
ĠR emoved
of f
of acial
Ġpal atal
Ġpal sy
Ġpass ive
Ġcan n
Ġform at
st ate
st udent
Ġro utine
Ġcomp ar
Ġcomp lex
Ġcomp ose
Ġcomp uter
Ġcomp are
Ġcomp act
Ġcomp lic
Ġcomp any
ĠHe alth
Ġcont ribution
Ġcont usion
Ġcont acting
cer vic
cc id
Ġres ection
Ġres emb
Ġres ists
Ġres earch
Ġpar ticip
Ġbe nd
Ġbe lie
truct ed
truct ors
ric ia
ric othyroid
xim ate
ni um
Ġmid arm
Ġob str
ĠO E
ĠO s
ĠO ver
ĠO lfactory
ĠO ste
ĠO elrich
Ġ8 0
Ġcon us
Ġcon ical
Ġcon form
Ġcon tig
emb ry
Ġcol ors
Ġcol lapses
ig enbaum
yg dal
Ġk ne
Ġrem oving
und ibulum
rach us
ast roduodenal
Ġtra ction
Ġtra pped
ates t
Ġpla nt
Ġpla ces
Ġpla cent
fer ence
Ġfac es
Ġfac tors
Ġsk ill
Ġac tion
Ġac quired
Ġsac cular
Ġili a
Ġili ocostal
Ġili ococcygeus
Ġse nd
Ġse nding
Ġte xtbook
Ġte mperature
Ġcavity Ã¢
qu ad
qu ate
res h
res pectively
Ġocc luded
Ġocc asionally
Ġduct ules
Ġgre en
Ġgre atest
Ġsinus oids
Ġst able
Ġst arting
Ġst abilize
Ġst arts
Ġst roma
Ġst ationary
pal m
pal ate
pal ato
pal atini
pal pable
sp read
Ġcord is
Ġcord like
Ġlay out
form s
Ġtri radi
Ġtri gon
Ġtri pod
Ġtub ular
igh ter
ew hat
hy pertension
Ġsep tomarginal
Ġup ward
Ġul trasonography
Ġinf lated
Ġinf undibulum
Ġven ipuncture
Ġun it
Ġun its
Ġun co
Ġun cover
Ġun supported
Ġun usual
Ġdors ally
Ġcanal iculi
pe ople
Ġde formity
Ġde gree
ob asilar
occ ur
occ up
occ lusion
Ġpul ses
Ġpul ling
lavic les
An y
An terolateral
An terosuperior
An gle
run s
ator es
Ġviscer ocranium
Ġscap ulohumeral
eat ing
Ġexp lained
ening s
if lexes
if est
if lexion
Ġfol lic
Ġhy d
Ġco ugh
Ġnod ules
lymp hatic
Ġobli ques
ting ling
Ġrot ational
uter us
Ġmet al
Ġheart beat
iz in
iz ing
ĠJ E
ĠJ J
ĠJ oy
Ġapp rec
rag ement
Ġcereb rum
hem iazygos
hem orr
hem atomas
ĠDr s
Ġref ers
Ġnas olacrimal
Ġret romammary
12 4
12 7
12 8
ex tend
ex its
ex tended
ex torsion
ex ample
Ġad equ
Ġad heres
Ġad vice
Ġso lid
anc es
Ġgland ular
pi er
pi riformis
end ocardial
ser ved
Ġpos itions
Ġen able
Ġen gor
Ġen ables
Ġen coun
Ġen abling
Ġcons cious
cap itis
Ġover view
Ġover lie
len ticular
Ġmes ovarium
Ġmo ther
Ġmo dified
Ġdia physes
10 0
10 1
10 4
10 5
10 7
ĠMed izin
Ġbronch ogram
Ġbronch omediastinal
19 8
19 33
19 73
Ġcranial ly
Anterior ly
Superior most
ive ly
loc alized
tum ors
Ġcoron ally
Ġlab ii
Ġlab oratory
Ġalong side
oth orax
osse i
Åĵ f
Åĵ out
Åĵ armp
tib i
tib ia
tib iofibular
han cing
Ġtal ocr
âĤ¬âĢ¢ ).
11 3
11 6
ou ght
ou ragement
med ius
superior is
iast ina
are a
are as
Ġcor n
Ġcor neal
ĠEx it
ĠEx tra
ribu te
ribu tio
Ġpub lish
Ġmin d
Ġmin utes
Ġcapsule s
Ex trinsic
Ġed ges
Ġed itor
Ġcontinu ed
Ġcontinu ing
Ġaponeur oses
lud ing
Ġplantar flexes
33 4
Ġpi riform
Ġexc el
Ġtrac king
pla nt
pla ntar
Ġel der
Ġmain tains
17 1
17 3
17 4
17 9
duc er
pro tr
pro ximally
pro jects
pro vide
pro tuberance
pro ceed
Ġsur rounded
13 2
13 6
13 8
27 8
27 9
inter mediate
inter muscular
inter phalangeal
inter vening
inter ossei
roc olic
par entheses
Ġpteryg o
Ġpteryg omandibular
Ġsupra vesical
Ġsupra epicondylar
Ġval gus
Ġval gum
Ġinterosse us
sub occipital
sub acromial
ligam entous
Ġlob ules
23 2
23 5
Ġimp roved
ard s
ard ed
Ġarticula ting
Ġdisc omfort
Ġdisc ontinuous
ĠRe ad
ĠRe viewers
occy geus
velop mental
49 1
49 9
Th us
Th oracic
Th ird
Ġind ex
Ġind entations
Ġacc ura
Ġacc ident
Ġacc epted
Ġne ed
Ġne ver
29 0
30 1
30 9
Ġcalcane ofibular
24 6
36 2
36 4
Ġback flow
Ġ19 37
Ġ19 39
Ġ19 54
Ġ19 80
Ġ19 83
Ġass isting
Ġcolum nar
Ġim a
Ġim mobile
Ġcut ting
Ġbul ge
Ġbul ging
Ġcolon oscope
alp inx
Ġbas ic
Ġdo or
Ġdo ing
Ġrec to
min im
out side
Ġqu ick
Ġthyroid ectomy
rem ain
Ġgra tit
55 1
Ar cuate
gra mm
Ġy et
Ġy our
thes i
Ġsacro spinous
Ġdevelop ing
Ġdevelop mental
ligament um
28 0
35 2
Ġbel lies
Ġlac unae
Ġinfra colic
Ġposition ed
app ears
app earing
app roach
Ġvar um
Ġvar ices
iliac us
Ġcontra cted
Ġeyelid Ã¢
flex or
flex ion
ty p
com bined
head ed
Ġtes tes
Ġisch ioanal
Ġlymphatic s
Ġindic ating
68 2
68 3
68 8
70 9
Pro gressive
Ġ200 4
rect um
Main tains
ĠK eegan
ĠK entucky
59 9
80 5
Ġthick ens
Ġmeatus es
ides pread
Ġdist orted
Ġconn ection
cus ps
ward s
Ġer os
Ġer ode
Innervation b
Ġshort ly
fib ro
thal amic
Ġout pouch
Ġsig ns
Ġinvol untary
ult aneous
Ġcommunic ations
Ġsole us
Ġsole ly
Ġretra ct
Ġretra ction
cl osure
io appendicular
ind ings
ind epend
Ġsuper io
sh ort
sh owing
sh aring
ven osum
ĠSub lingual
Ġorigin ate
kin je
ish ed
Ġblock ed
Ġtransvers aria
omedial ly
Ġfore foot
Ġauric les
Ġsecond arily
jun ct
val ve
inac ular
lec tomy
peritone um
Ġdigital s
Ob struction
con us
con ve
con verge
con cave
Ġcosto chondral
Ġfluid s
Ġintra abdominal
Ġintra venous
Ġintra caps
Ġtrans ition
Ġtrans mits
Ġtrans lucent
Ġtrans plant
Ġtrans ducer
Ġemer ging
Ġpalp ation
Ġpalp ate
Ġband like
Ġreach ing
Ġlo ading
ĠBas ed
ĠBas ma
ath letes
ath leen
mit ral
membran ous
tuber cle
arc ades
enc ouragement
Ġdisloc ates
Ġclin ician
Ġretinac ular
Ġconstrict ors
Ġextension s
Ġunder lies
Ġunder go
let ters
Ġbro ken
ĠPh oto
Ġallow ed
Ġconc entric
duct us
Ġact ual
Ġph oto
Ġcal f
Ġgast rocolic
Ġstud ent
Ġenlar ging
Ġpattern s
ck nowled
co chlear
Ġsynd romes
ĠAx ioappendicular
Ġexam ined
Ġexam inations
Ġcaud al
Ġcaud ally
Ġweak er
Ġweak ly
Ġweak ened
Ġbroad er
For med
Sub costal
Sub mandibular
Sub clavius
can thus
Ġthorac o
Ġthorac oabdominal
ĠAl len
ĠAl ber
Ġcric oarytenoid
limb s
acrom ioclavicular
oph renic
Ġdise ased
phal anges
Ġschem a
Ġschem e
spinal is
Ġabs orb
be nding
be fore
patel lofemoral
Ġble nding
Ġmenis cofemoral
Ġsple nium
Ġred uce
Ġred uces
Ġperi oste
Ġzygomatic otemporal
Ġmasseter ic
IV C
ger ing
long er
Ġopp osed
Ġopp osition
articula tes
Ġman ip
Ġman ifest
Ġdepress ors
Ġtrochanter ic
Ġsphen opalatine
Ġsphen omandibular
sequ ent
Ġextra ction
Ġextra peritoneal
Ġextra dural
Ġdiss ecting
common ly
Sh oulder
bec ome
dis placement
pass ages
Ġstra p
Ġstra in
Ġstra nds
Ġsagittal ly
ĠCol or
ĠCol lectively
ĠComp arative
Ġnarrow er
Ġnarrow ed
dig itation
dig itorum
Inter costal
Inter osseous
ircle s
Ġresist ing
Ġcolor ed
Ġdef ecation
Ġorient ed
Supra spinatus
aud al
cti tion
tri angular
tri gones
Ġmam illo
like ly
atri um
ĠMy otatic
Ġrecess ion
ĠSch warzen
Ġprof use
cessive ly
Ġrefle ct
Ġrefle ction
Ġclose ly
Ġmaxilla e
Ġorgan ize
Ġorgan ization
Ġpresent ed
Ġstyl omandibular
Cont inuous
Cont ralateral
Cont raction
Mid brain
br uising
condy le
Ġpup illary
Ġche ck
Ġcune atus
Ġins tructors
identi fication
Ġtak es
Ġtak ing
Ġemb raced
Ġelev enth
Ġprotr ude
Ġhel d
Ġscal enes
Ġcontin ence
spec ial
Ġhyp erex
Ġhyp ophyseal
Ġgroup ed
Ġtrache ostomy
He art
He ather
Par otid
Par alysis
Par arectal
mes enteries
wa ist
aracter istics
Ġpoint s
Ġpron ated
Ġdesc ription
Ġves icle
Ġremain ed
Ġocclusion s
Ġappear ance
Ġtermin ate
Ġtermin ology
Ġmuscul ophrenic
Ġsevere ly
cons cious
jur ies
met atarsal
nod e
nod al
sur geons
Ġsim ultaneous
Ġpis ohamate
radi ocarpal
radi oulnar
ĠCh ubb
ĠCh aracteristics
Ġdep ending
Ġdep ends
omet rium
Ġham mer
Ġham ulus
ĠThere fore
perineum Ã¢
Ġtravel ing
Ġappend icular
Ġappend ices
Ġencl osing
Ġoverla id
Ġoverla ps
Ġoverla pping
produc es
Arter ies
communic ating
Ġloop ing
Ġsaliv a
cor relation
cor pora
Ġthyro arytenoid
Ġthyro glossal
Ġste thoscope
Ġposs ibly
Ġcha mbers
Ġmer ging
requ ency
Ġder ive
Ġrepla ce
Ġsplen orenal
Ġsubcostal es
Ġcondition s
Ġstretch es
Ġstretch ed
Ġdorsif lexes
Ġincision s
Ġmark s
Ġmyoc ardial
Ġgrasp ed
compartment Ã¢
Di verticulosis
Pos terolateral
Sc alp
Sp iral
Sp lanchnic
Sem imembranosus
Stern othyroid
cross ed
pre vertebral
pre gnancy
pres er
sc rotum
sc opic
sc alene
Ġir ritation
org ia
Ġsudden ly
Ġpus h
Ġpus hing
Ġpur pose
Ġnut ri
Ġnumber ed
Ġwind ow
ĠDe an
ĠDe velopmental
Ġaneur ysms
Ġvisual ized
Ġvisual ize
Ġvisual ization
Ġgingiv a
Ġgingiv al
ĠSt retch
ĠSt udents
Ġexcessive ly
Ġfibros is
Ġpalato pharyngeal
Ġpalato pharyngeus
Ġpalato glossal
Ġbegin ning
Ġdev iates
Ġcharacter istics
Ġlocal ized
Ġdemarc ating
Asce nding
Ġcuneiform s
Ili otibial
Mo ore
Re la
Re ferences
Rect um
Sty lohyoid
Tra uma
Tra verses
cr ura
cr ural
coron ally
iph oid
iph eral
me ans
rinc eps
thorac oabdominal
Ġouter most
Ġsix th
Ġflav um
Ġblow s
rec ogni
ref ace
illed ema
Ġta enia
Ġele ment
Ġele ments
Ġgo ose
Ġhook s
Ġhold ing
ĠVal erie
Ġincis ive
Ġrelax ed
Ġcho ice
Ġrecons tructions
Ġsuperolateral ly
Ġretrograde ly
Ġosse ous
Ġdescrib e
Ret ina
Ret racts
Tibial is
cent rically
fem ales
supra clavicular
inf ection
orb it
Ġshap es
Ġsut ure
Ġsut ured
ĠAd ult
ĠAd junct
Ġcre ated
lab ium
Ġindividual s
rot ation
ĠCor ti
ĠCor pus
ĠCar otid
ĠCar lton
ĠTrans vaginal
acetab ular
Ġwide ly
Ġequ al
ĠSur g
Ġlimit ed
Ġlimit ation
Ġlimit ans
Ġkeep s
Ġoccup ies
Ġoccup ied
ĠRadi o
ĠRadi opaque
Ġelong ation
Ġ199 8
Ġyo uth
append ix
append icitis
Ġsuperomedial ly
Ġaccompan ies
where as
Ġintro duced
separ ates
Sm ell
bre ast
eye lid
fossa Ã¢
sk ull
sinus es
Ġsocket s
Ġpy lor
Ġpit uitary
isk ly
Ġclear ly
ĠTerm ination
Ġdown ward
Ġtouch ed
anes thetizes
omb oids
Ġeff ector
Ġejac ulation
Ġ18 86
inser t
inser ting
abs ent
abs cesses
abs orption
ĠSecond ary
ĠGra y
ĠGra duate
Ġlig ature
includ es
olis m
Ġforc ibly
Ġexper t
Ġexper tise
Ġhair s
Ġcarri ed
ĠVestib ule
Ġresp onsible
Ġpara vertebral
Ġpara hippocam
ĠOp tic
ĠOp ened
Ġaccess ibility
Ġdeter min
Thorac odorsal
cover ings
Ġreduc ing
Ġcurv atures
Ġflatten ed
Ġmetastas izes
Lac eration
Line a
St abilizes
costo brachial
dist urb
gener ated
her ent
join ed
pers on
stern um
stern ocleidomastoid
stern oclavicular
Ġi odine
Ġens ures
there fore
Ġol d
Ġsa fe
Ġsle eve
Ġslow s
Ġslow ly
Ġfill s
Ġfill ing
Ġbrid ge
lac unae
Ġmechan ical
roph ies
Ġten se
Ġten osynovitis
ĠDistal ly
Ġanc illaries
Ġreview ed
Ġreview ers
Ġgap s
ĠGe orgia
ĠPre ece
Ġforce ful
sever e
sever al
sever ely
Ġexer ts
Inf lammation
Inf ections
Ġdilat or
Ġdilat ors
Ġperform ing
Ġinterdig itates
Ġaltern ately
Ġtil ting
ĠOcc ipitofrontalis
Ġcollic uli
Ġteach er
Ġconsider ably
Ġdistinct ly
Ġcrus hing
Ġpersist ent
Or bicularis
Opp osite
Opp onens
Pat ent
Pat ricia
Sever e
Sever ance
Transvers us
bifurc ates
calcane us
calcane ofibular
dors iflexion
ioc avern
lop ia
sm all
ste lla
sem ispinalis
transvers us
Ġrough ened
Ġthromb osis
Ġshe ets
Ġsuc king
Ġslid es
Ġslid ing
tig ative
Ġcres ts
Ġbr ings
Ġbr iskly
Ġmon osynaptic
Ġmic roscopic
Ġmod els
rela tive
rela tionship
ĠCa itlin
accomp an
ump ing
ĠLang land
ĠLang lais
ĠDesc riptive
ĠMac Kenz
Ġreinfor ced
Ġgrow th
ĠEn largement
Ġprot ect
Ġcomm issure
Ġcomm ences
ĠInd ies
Ġrad ical
Ġrow s
Ġtrabec ula
Ġfacil itate
Ġfacil itating
Ġlaryng oscopy
Ġlaryng ocele
exp ression
Ġadvanc es
Ġenc ircles
Ġextensive ly
retro peritoneal
retro pharyngeal
complete ly
continuous ly
Ġfascic uli
Ġgastro duodenal
Ġosti um
disloc ation
disloc ations
skele tal
Ġcistern a
Ġrepresent ed
Dist inctive
Dist ributio
Ph otograph
Pron ates
Pron ator
Some times
fing ers
gro ove
number ed
Ġver tex
Ġprac tical
Ġcla ustrum
Ġcli vus
Ġcing ulum
Ġcing ulate
Ġchy li
Ġcalc ium
Ġfro g
Ġfre ed
Ġfind ings
Ġbis ected
Ġmethod s
Ġinspiration b
edic ation
ĠLee kam
ĠWh ile
Ġelastic us
chi atry
Ġrepe ated
Ġrepe titive
Ġvis cus
ĠFe igenbaum
epiph ysis
ĠScap ular
emer ge
ĠPanc reas
ĠPanc reatic
Ġspas m
Ġspas ms
vestib ular
vestib ule
Ġdip lopia
Ġdiminish es
Ġdiminish ed
Ġconduct ing
Ġconsequ ence
Ġcolle agues
Ġtibi ocalcanean
Ġtibi otalar
Ġdefic its
Ġdefic ient
caps ulated
Ġestab lish
Ġestab lished
Ġeduc ational
prof undus
Ġaccum ulate
caud al
Ġsecre ted
ypical Ã¢
Ġpreser ve
continu ed
surrou nds
surrou nding
sphenoid al
Ġvasocons triction
Ġvasocons trictor
Ġrhomb oid
Ġrhomb oids
Palato glossus
Palato pharyngeus
super olateral
super oposterior
ĠTermin ology
degener ation
degener ative
hippocam pus
Ġsugges tions
Ad jacent
Bucc al
Cur ves
Follow s
Muc ous
Nas ociliary
Section al
burs a
des pite
det ails
draw ings
fix ed
gla nds
grow th
mening es
menis cus
mastoid itis
odi lat
oft en
synd rome
sacro tuberous
weight ed
third s
throsc ope
Ġam ong
innerv ated
orific e
arti te
Ġsto ut
Ġsour ce
Ġsynap se
Ġsamp ling
Ġcri tical
Ġfontanel les
Ġbes ide
Ġbow l
Ġbene ath
Ġbacter ia
Ġinv ade
retra cted
ĠCl incally
ĠCont rast
ĠCirc umflex
ĠTib iofibular
Ġdent ate
Ġdec uss
Ġdys function
Ġtool s
ectom ies
Ġnostr il
uplic ated
ĠLex icon
amin ectomies
ĠDrain ing
ĠDiss ector
ĠDuck wall
Ġant agon
Ġanser inus
ĠMil itary
ĠMark ings
Ġread ily
Ġrelev ance
Ġ116 8
ĠForm ations
Ġlist ed
Ġgal li
Ġglid e
ĠBro dy
ĠEmer itus
ĠSh ort
Inc reased
Incis or
Ġproject ing
Ġproportion ately
trun k
Ġhist ory
Ġdivertic ulum
Ġperistal sis
Ġcarcin oma
ĠIli olumbar
pert rophy
ĠRoc he
Ġparac olic
Ġoblong ata
Ġconto ur
Ġplan es
Ġseven th
splen ic
Ġulcer ation
Ġpharyng obasilar
Ġapplic ation
Ġclar ity
Ġclos er
Ġdiagon al
Ġprem olars
elev ate
Ġelic ited
Ġmucos al
Ġquarter s
abduct ed
redis posing
Compar atively
Ġpedag ogical
Ġextravas ation
Ġexperi ence
Ġmicro trauma
Ġmoder ates
demonstra ting
Ġtechni que
Ġextrem ely
Ġambig uus
Are a
Bic eps
Col lateral
Don ald
Dors iflexes
Draw s
ER CP
Eding er
Gu asp
Ger dy
Guy on
La tissimus
Loc ated
Met atarsal
Mening eal
Pis iform
Pur kinje
Ra diograph
Rec urrent
Sep ar
Tend ons
Tuber osity
Ur inary
Ve in
West phal
aur icular
bg ott
cerebell ar
dise ase
eu tic
eff ective
fail ure
grant satlas
hou ette
iomed ical
lw w
max imus
main tain
overview s
ojejun al
poss ible
sit u
she aring
sha ft
shap e
uish ing
vuls ive
ylvan ia
zab eth
Ġec centrically
Ġri gid
thep oint
Ġali gn
Ġaqu educt
Ġtherap eutic
orec eptor
Ġsil houette
Ġsom ewhat
Ġsque e
enns ylvania
Ġpra ctition
Ġpiv ot
ĠAss ociated
ĠAlab ama
ĠAbs ence
ĠAugust a
Ġcate gor
Ġcrow ns
Ġclimb ing
Ġchemis try
Ġcours ing
Ġfles hy
Ġfiss ures
Ġfiel d
Ġbrow n
Ġmane uver
Ġmatri x
Ġinver ts
Ġinves tigative
Ġinade quate
ĠCereb rum
ĠCred its
ĠTorr ent
Ġduoden ojejunal
Ġdroop s
accom modate
hams tring
habil itation
Ġtoun ge
Ġtourni quet
anhyd rosis
Ġnotic e
ĠLou isville
ĠAnomal ous
amkiew icz
Ġtors ion
Ġtunic a
Ġtapp ing
ĠWay ne
ĠWinn ipeg
ĠWiscons in
Ġantibiotic s
Ġeigh th
ĠMun ich
ĠMuse um
Ġarthri tis
Ġvortic ose
orsesho e
Ġguber naculum
Ġgelat inous
ĠEss ential
Ġlamb d
ĠGree k
ĠGyn ec
ĠGren ada
ĠPrincip les
Ġaspirat ed
Ġmedullar is
Ġproble m
allst ones
Ġhocke y
Ġdisting uishing
talocalcane onavicular
Ġdiffic ulty
Ġcommin uted
ĠHerb ener
ucasian s
Ġinterpre ted
trapez ium
Ġsubple ural
Ġsubfascial ly
ĠVerm ont
ĠVanderb ilt
ĠRoy al
ygdal oid
Ġplant ae
Ġplacent a
Ġiliocostal is
Ġtextbook s
Ġtriradi ate
Ġtrigon um
Ġuncover ed
Ġcough ing
Ġadequ ate
Ġencoun tered
Åĵarmp it
Ġtalocr ural
Ġelder ly
Ġgratit ude
gramm atic
Ġoutpouch ing
Ġintracaps ular
ĠBasma jian
cknowled gments
ĠAlber ta
Ġabsorb ed
Ġmamillo thalamic
Ġhyperex tended
recogni zed
Ġtaenia e
Ġparahippocam pal
disturb ance
iocavern osus
stella te
ĠMacKenz ie
