{"<s>":0,"<pad>":1,"</s>":2,"<unk>":3,"<mask>":4,"!":5,"\"":6,"#":7,"$":8,"%":9,"&":10,"'":11,"(":12,")":13,"*":14,"+":15,",":16,"-":17,".":18,"/":19,"0":20,"1":21,"2":22,"3":23,"4":24,"5":25,"6":26,"7":27,"8":28,"9":29,":":30,";":31,"<":32,"=":33,">":34,"?":35,"@":36,"A":37,"B":38,"C":39,"D":40,"E":41,"F":42,"G":43,"H":44,"I":45,"J":46,"K":47,"L":48,"M":49,"N":50,"O":51,"P":52,"Q":53,"R":54,"S":55,"T":56,"U":57,"V":58,"W":59,"X":60,"Y":61,"Z":62,"[":63,"\\":64,"]":65,"^":66,"_":67,"`":68,"a":69,"b":70,"c":71,"d":72,"e":73,"f":74,"g":75,"h":76,"i":77,"j":78,"k":79,"l":80,"m":81,"n":82,"o":83,"p":84,"q":85,"r":86,"s":87,"t":88,"u":89,"v":90,"w":91,"x":92,"y":93,"z":94,"{":95,"|":96,"}":97,"~":98,"¡":99,"¢":100,"£":101,"¤":102,"¥":103,"¦":104,"§":105,"¨":106,"©":107,"ª":108,"«":109,"¬":110,"®":111,"¯":112,"°":113,"±":114,"²":115,"³":116,"´":117,"µ":118,"¶":119,"·":120,"¸":121,"¹":122,"º":123,"»":124,"¼":125,"½":126,"¾":127,"¿":128,"À":129,"Á":130,"Â":131,"Ã":132,"Ä":133,"Å":134,"Æ":135,"Ç":136,"È":137,"É":138,"Ê":139,"Ë":140,"Ì":141,"Í":142,"Î":143,"Ï":144,"Ð":145,"Ñ":146,"Ò":147,"Ó":148,"Ô":149,"Õ":150,"Ö":151,"×":152,"Ø":153,"Ù":154,"Ú":155,"Û":156,"Ü":157,"Ý":158,"Þ":159,"ß":160,"à":161,"á":162,"â":163,"ã":164,"ä":165,"å":166,"æ":167,"ç":168,"è":169,"é":170,"ê":171,"ë":172,"ì":173,"í":174,"î":175,"ï":176,"ð":177,"ñ":178,"ò":179,"ó":180,"ô":181,"õ":182,"ö":183,"÷":184,"ø":185,"ù":186,"ú":187,"û":188,"ü":189,"ý":190,"þ":191,"ÿ":192,"Ā":193,"ā":194,"Ă":195,"ă":196,"Ą":197,"ą":198,"Ć":199,"ć":200,"Ĉ":201,"ĉ":202,"Ċ":203,"ċ":204,"Č":205,"č":206,"Ď":207,"ď":208,"Đ":209,"đ":210,"Ē":211,"ē":212,"Ĕ":213,"ĕ":214,"Ė":215,"ė":216,"Ę":217,"ę":218,"Ě":219,"ě":220,"Ĝ":221,"ĝ":222,"Ğ":223,"ğ":224,"Ġ":225,"ġ":226,"Ģ":227,"ģ":228,"Ĥ":229,"ĥ":230,"Ħ":231,"ħ":232,"Ĩ":233,"ĩ":234,"Ī":235,"ī":236,"Ĭ":237,"ĭ":238,"Į":239,"į":240,"İ":241,"ı":242,"Ĳ":243,"ĳ":244,"Ĵ":245,"ĵ":246,"Ķ":247,"ķ":248,"ĸ":249,"Ĺ":250,"ĺ":251,"Ļ":252,"ļ":253,"Ľ":254,"ľ":255,"Ŀ":256,"ŀ":257,"Ł":258,"ł":259,"Ń":260,"er":261,"th":262,"Ġa":263,"in":264,"al":265,"Ġo":266,"Ġth":267,"Ġthe":268,"Ġof":269,"or":270,"on":271,"nd":272,"ter":273,"le":274,"ar":275,"Ġs":276,"es":277,"en":278,"Ġand":279,"ti":280,"Ġp":281,"ra":282,"ĠA":283,"is":284,"Ġc":285,"us":286,"to":287,"ur":288,"Ġf":289,"Ġb":290,"la":291,"Ġm":292,"Ġin":293,"ed":294,"ior":295,"ic":296,"ro":297,"re":298,"tion":299,"it":300,"he":301,"ent":302,"os":303,"ĠC":304,"li":305,"ĠT":306,"Ġd":307,"ac":308,"ve":309,"ha":310,"Ġto":311,"ran":312,"il":313,"ec":314,"an":315,"ing":316,"Ġn":317,"te":318,"ul":319,"Ġ(":320,"ri":321,"as":322,"ial":323,"um":324,"up":325,"ly":326,"ĠL":327,"terior":328,"gh":329,"ĠAn":330,"id":331,"am":332,"Ġt":333,"ĠW":334,"at":335,"hap":336,"erior":337,"om":338,"Ġw":339,"art":340,"ĠWil":341,"hapter":342,"Ġ>":343,"Ġ-":344,"ot":345,"ĠD":346,"ver":347,"Ġan":348,"Ġ\"":349,"Ġe":350,"ĠM":351,"Ġar":352,"ch":353,"Ġis":354,"op":355,"Ġre":356,"Ġ1":357,"cle":358,"di":359,"ins":360,"ĠLi":361,"el":362,"tom":363,"tic":364,"ents":365,"Ġsup":366,"pp":367,"ght":368,"ne":369,"ont":370,"ab":371,"Ġner":372,"uscle":373,"ct":374,"Ġv":375,"ĠF":376,"right":377,"Ġl":378,"ors":379,"atom":380,"ular":381,"Ġg":382,"ad":383,"ĠB":384,"ĠE":385,"ep":386,"ary":387,"able":388,"teral":389,"Ġla":390,"The":391,"ĠThe":392,"atomy":393,"osterior":394,"ĠS":395,"em":396,"ĠG":397,"ĠAr":398,"Ġli":399,"ine":400,"alle":401,"rom":402,"ĠAt":403,"Ġmuscle":404,"20":405,"Ġarter":406,"inc":407,"uth":408,"las":409,"ess":410,"'s":411,"rant":412,"ĠÃ":413,"gur":414,"ia":415,"ĠAnatomy":416,"ĠGrant":417,"200":418,"ĠP":419,"un":420,"dition":421,"Ġnerve":422,"ĠAtlas":423,"ect":424,"Ġ12":425,"ib":426,"ub":427,"inal":428,"ion":429,"ontents":430,"Ġ&":431,"ott":432,"ous":433,"ow":434,"ams":435,"opy":436,"kins":437,"alley":438,"liams":439,"ĠDalley":440,"Chapter":441,"ĠWilkins":442,"ĠWilliams":443,"ĠTable":444,"thur":445,"ĠAgur":446,"ĠLipp":447,"incott":448,"ĠLippincott":449,"ĠChapter":450,"ĠEdition":451,"uthors":452,"Authors":453,"Â©":454,"ĠAnne":455,"ĠArthur":456,".;":457,"Copy":458,"Tit":459,"ĠÃĤ":460,"2009":461,"Copyright":462,"Title":463,"ĠContents":464,"ol":465,"Part":466,"Ġfor":467,"ferior":468,"et":469,"Ġsp":470,"ge":471,"Ġfrom":472,"se":473,"tern":474,"Ġare":475,"Ġas":476,"Ġle":477,"the":478,"mp":479,"Ġposterior":480,"Ġex":481,"mb":482,"ation":483,"âĤ":484,"âĤ¬":485,"Ġj":486,"In":487,"Ġma":488,"Ġanterior":489,"oc":490,"Ġmed":491,"ves":492,"ection":493,"oin":494,"od":495,"Ġpro":496,"Ġsuperior":497,"Ġhe":498,"ith":499,"vic":500,"tr":501,"Ġat":502,"Ã¢":503,"Ġartery":504,"all":505,"Ġlateral":506,"lex":507,"âĢ":508,"âĤ¬âĢ":509,"Ġh":510,"ap":511,"ut":512,"Ġinferior":513,"ir":514,"uct":515,"gam":516,"Ġby":517,"ternal":518,"Ġdis":519,"oint":520,"Ġve":521,"ranch":522,"tal":523,"ment":524,"Ġwith":525,"Ġor":526,"ong":527,"ace":528,"Ġdi":529,"oid":530,"ach":531,"ĠU":532,"ral":533,"ity":534,"eep":535,"vis":536,"rou":537,"Ġcom":538,"Ġit":539,"Ġon":540,"bd":541,"Ġr":542,"ce":543,"een":544,"ft":545,"Ġligam":546,"urf":547,"ĠLimb":548,"one":549,"âĤ¬âĢľ":550,"im":551,"ate":552,"Ġ5":553,"Ġ2":554,"Ġbranch":555,"Ġmuscles":556,"Ġjoint":557,"Ġmedial":558,"Ġpart":559,"rans":560,"Ġper":561,"Ġha":562,"teb":563,"and":564,"Ġwh":565,"ph":566,"ure":567,"fic":568,"pect":569,"tend":570,"Ġ6":571,"ere":572,"ers":573,"oral":574,"ass":575,"ies":576,"ens":577,"ĠH":578,"Ġ7":579,"bdom":580,"lo":581,"urface":582,"ransver":583,"Ġca":584,"verteb":585,"Ġ3":586,"ĠTh":587,"ord":588,"aryn":589,"asc":590,"Ġnerves":591,"ower":592,"elvis":593,"Ġleft":594,"rough":595,"Ġfib":596,"ss":597,"uc":598,"Ġcar":599,"our":600,"og":601,"ula":602,"ax":603,"gion":604,"ue":605,"umb":606,"Ġaspect":607,"ransverse":608,"ymp":609,"Ġsc":610,"ov":611,"Ġinter":612,"ys":613,"cess":614,"Ġal":615,"oss":616,"ical":617,").":618,"ag":619,"ĠIn":620,"ons":621,"ital":622,"oron":623,"Ġligament":624,"atic":625,"ide":626,"Ġthrough":627,"ner":628,"Ġsupp":629,"ip":630,"tra":631,"ures":632,"ili":633,"Ġdeep":634,"eck":635,"ficial":636,"mon":637,"ĠI":638,"erficial":639,"ill":640,"Ġhead":641,"Ġra":642,"etw":643,"Ġsub":644,"Ġfem":645,"ineum":646,"ang":647,"ane":648,"Ġregion":649,"ear":650,"per":651,"section":652,"ĠV":653,"Ġwall":654,"ĠN":655,"Ġthat":656,"etween":657,"ud":658,"ĠR":659,"Ġright":660,"tions":661,"Ġ4":662,"Ġverteb":663,"of":664,"Ġpal":665,"ascia":666,"Ġveins":667,"for":668,"Ġti":669,"Ġinto":670,"Ġpass":671,"rib":672,"ts":673,"ale":674,"Ġcan":675,"tes":676,"Ġform":677,"st":678,"els":679,"Ġro":680,"nds":681,"tach":682,"ina":683,"Ġbetween":684,"Ġcomp":685,"ated":686,"ally":687,"orac":688,"Ġvein":689,"ĠHe":690,"Ġsurface":691,"Ġcont":692,"Ġfascia":693,"lateral":694,"cer":695,"Ġside":696,"orax":697,"cc":698,"Ġres":699,"pper":700,"Ġpar":701,"Ġbe":702,"truct":703,"ich":704,"essels":705,"ĠAbdom":706,"ĠUpper":707,"ort":708,"ĠHead":709,"Ġdig":710,"ory":711,"Ġcav":712,"dle":713,"uperior":714,"vers":715,"CN":716,"Ġsection":717,"ric":718,"xim":719,"ĠLower":720,"Ġbranches":721,"ni":722,"Ġmid":723,"geal":724,"Ġob":725,"elvic":726,"Ġarteries":727,"ĠO":728,"Ġ8":729,"Ġcon":730,"ĠPer":731,"ments":732,"Ġtend":733,"emb":734,"Ġflex":735,"ian":736,"ones":737,"Ġcol":738,"Ġprocess":739,"enter":740,"ĠAbdomen":741,"ig":742,"yg":743,"ack":744,"Ġvessels":745,"ostal":746,"Ġlong":747,"ain":748,"ist":749,"embran":750,"),":751,"Ġk":752,"Ġrem":753,"Ġmay":754,"Ġits":755,"ĠThorax":756,"RI":757,"und":758,"vical":759,"haryn":760,"rat":761,"Ġwhich":762,"II":763,"rach":764,"ast":765,"Ġinternal":766,"Ġtra":767,"ates":768,"nerv":769,"lexus":770,"aneous":771,"Ġ,":772,"ĠMRI":773,"ĠPelvis":774,"ress":775,"so":776,"Ġtw":777,"tructures":778,"use":779,"utaneous":780,"ogra":781,"ibular":782,"lood":783,"ossa":784,"Ġpla":785,"fer":786,"Ġfac":787,"ose":788,"Ġsk":789,"Ġbone":790,"illary":791,"Ġac":792,"Ġsh":793,"Ġcer":794,"oved":795,"Ġfibers":796,"inus":797,"Ġfossa":798,"ĠPerineum":799,"ction":800,"Ġgla":801,"Ġsupply":802,"Ġsac":803,"vel":804,"Ġili":805,"Ġplexus":806,"oracic":807,"Ġse":808,"versity":809,"Ġte":810,"edial":811,"Ġattach":812,"niversity":813,"Ġtwo":814,"ite":815,"Ġcavity":816,"Ġexternal":817,"ĠUniversity":818,"ove":819,"qu":820,"res":821,"Ġocc":822,"Ġdra":823,"Ġduct":824,"Ġgre":825,"Ġspinal":826,"Ġsinus":827,"tis":828,"oot":829,"iscer":830,"ost":831,"Ġsuperficial":832,"Ġst":833,"Ġarch":834,"gin":835,"Ġmembran":836,"Ġneck":837,"ted":838,"ond":839,"dd":840,"oti":841,"pal":842,"hea":843,"tem":844,"ticular":845,"Ġdissection":846,"ranial":847,"otor":848,"Ġdigit":849,"ell":850,"ada":851,"thetic":852,"nar":853,"ron":854,"sp":855,"Ġmiddle":856,"Ġcervical":857,"Ġcord":858,"ree":859,"Ġlay":860,"Ġlimb":861,"ourtes":862,"form":863,"ourtesy":864,"uring":865,"ateral":866,"uinal":867,"Ġtri":868,"Ġcommon":869,"ĠCan":870,"ase":871,"ible":872,"Ġresul":873,"Ġremoved":874,"Ġthis":875,"urs":876,"Ġtub":877,"Ġrect":878,"low":879,"yn":880,"Ġax":881,"tric":882,"order":883,"oronto":884,"ĠCanada":885,"igh":886,"Ġabdom":887,"ew":888,"ĠToronto":889,"umbar":890,"nervation":891,"Ġpelvis":892,"hy":893,"Ġus":894,"Ġsep":895,"Ġpelvic":896,"omp":897,"uscles":898,"Ġtib":899,"otid":900,"Ġup":901,"ĠBack":902,"ereb":903,"Ġvertebra":904,"Ġul":905,"Ġbeen":906,"ympa":907,"ximal":908,"Ġrib":909,"Ġbo":910,"Ġinf":911,"Ġven":912,"angli":913,"lu":914,"Ġthoracic":915,"Ġstructures":916,"Ġcap":917,"Ġborder":918,"Ġvertebral":919,"ympathetic":920,"Ġun":921,"Ġblood":922,"Ġdors":923,"uperficial":924,"Ġcanal":925,"Ġfoot":926,"Ġbec":927,"Ġinc":928,"pe":929,"Ġligaments":930,"Ġhas":931,"ium":932,"ĠTransverse":933,"Ġde":934,"ob":935,"que":936,"tila":937,"umer":938,"occ":939,"Ġdistal":940,"Ġcompart":941,"Ġskin":942,"ause":943,"costal":944,"Ġbones":945,"osis":946,"amen":947,"Ġtransverse":948,"cted":949,"ody":950,"Ġfacial":951,"ater":952,"Ġpul":953,"Ġmembrane":954,"Table":955,"mar":956,"tens":957,"Ġbrach":958,"entric":959,"ually":960,"lavic":961,"ĠCourtesy":962,"An":963,"Ġanatomy":964,"Ġrela":965,"guinal":966,"iew":967,"ule":968,"Ġhave":969,"run":970,"ye":971,"ator":972,"tive":973,"usc":974,"Ġnot":975,"Ġviscer":976,"ograph":977,"ystem":978,"Ġop":979,"Ġgangli":980,"Ġscap":981,"eat":982,"ges":983,"ross":984,"Ġtrun":985,"Ġexp":986,"Ġlayer":987,"ening":988,"ĠSurface":989,"Ġtendon":990,"Ġiliac":991,"Ġtrunk":992,"if":993,"Ġfol":994,"Ġduring":995,"Ġhy":996,"ĠMRIs":997,"ars":998,"Ġco":999,"Ġcartila":1000,"Ġupper":1001,"hal":1002,"jor":1003,"zyg":1004,"Ġthigh":1005,"nding":1006,"Ġpharyn":1007,"Ġnod":1008,"lymp":1009,"ineal":1010,"Ġobli":1011,"ting":1012,"Ġ)":1013,"vid":1014,"esce":1015,"Ġlaryn":1016,"Ġrot":1017,"ronch":1018,"ther":1019,"Ġpor":1020,"Ġeye":1021,"andibular":1022,"ipital":1023,"ĠNeck":1024,"Ġflexor":1025,"ual":1026,"uter":1027,"erm":1028,"Ġsens":1029,"Ġbody":1030,"Ġmet":1031,"nee":1032,"mporal":1033,"Ġheart":1034,"iz":1035,"ĠJ":1036,"aces":1037,"Ġlies":1038,"Ġhand":1039,"Ġapp":1040,"rag":1041,"Ġcereb":1042,"hem":1043,"ĠDr":1044,"Ġref":1045,"eps":1046,"ung":1047,"Ġforamen":1048,"Ġcl":1049,"itone":1050,"rim":1051,"Ġextend":1052,"inu":1053,"Ġsystem":1054,"issection":1055,"Ġnas":1056,"kle":1057,"Ġpect":1058,"Ġret":1059,"Ġlower":1060,"Ġmajor":1061,"Ġproximal":1062,"Ġjoints":1063,"earm":1064,"Ġgreater":1065,"12":1066,"dial":1067,"ex":1068,"hen":1069,"Ġad":1070,"Ġso":1071,"ird":1072,"ympan":1073,"Ġusually":1074,"ay":1075,"ition":1076,"alc":1077,"Ġsm":1078,"Ġperineum":1079,"Ġroot":1080,"uch":1081,"Ġsit":1082,"enal":1083,"Ġmale":1084,"anc":1085,"Ġarm":1086,"Ġmand":1087,"orta":1088,"Ġgland":1089,"hyoid":1090,"Ġoblique":1091,"ile":1092,"ight":1093,"yro":1094,"Ġenter":1095,"Ġlymp":1096,"lav":1097,"atine":1098,"Ġalso":1099,"monary":1100,"pi":1101,"inous":1102,"Ġline":1103,"mental":1104,"Ġperineal":1105,"Ġsuppli":1106,"Ġknee":1107,"age":1108,"end":1109,"ff":1110,"Ġure":1111,"ans":1112,"Ġlaterally":1113,"Ġorb":1114,"loor":1115,"Ġfemur":1116,"angle":1117,"Ġtuber":1118,"Ġvertebrae":1119,"lute":1120,"Ġnodes":1121,"ser":1122,"ura":1123,"Ġpos":1124,"hatic":1125,"ome":1126,"ĠDeep":1127,"diograph":1128,"Ġvag":1129,"Ġintercostal":1130,"posterior":1131,"Ġinguinal":1132,"ĠMuscles":1133,"ticula":1134,"Ġpasses":1135,"Ġseg":1136,"heath":1137,"Ġen":1138,"Ġch":1139,"Ġcons":1140,"ĠDissection":1141,"Ġanteriorly":1142,"Ġram":1143,"inage":1144,"alcane":1145,"iv":1146,"lar":1147,"nt":1148,"Ġcompartment":1149,"cap":1150,"Ġover":1151,"len":1152,"Ġmes":1153,"Ġsubc":1154,"Ġfemoral":1155,"Ġter":1156,"Ġori":1157,"les":1158,"astric":1159,"Ġankle":1160,"ĠPosterior":1161,"Ġmedian":1162,"Ġcarotid":1163,"Ġabdominal":1164,"Ġulnar":1165,"itis":1166,"loss":1167,"olateral":1168,"Ġburs":1169,"ladd":1170,"Ġmo":1171,"Ġdia":1172,"Ġforearm":1173,"round":1174,"10":1175,"ten":1176,"Ġthree":1177,"Ġthird":1178,"Ġinj":1179,"Ġspec":1180,"Ġscapula":1181,"ragm":1182,"ladder":1183,"ucle":1184,"Ġbre":1185,"ĠMed":1186,"Ġlumbar":1187,"ected":1188,"Ġextens":1189,"Ġwhen":1190,"ntar":1191,"ced":1192,"lite":1193,"Ġuter":1194,"Ġaorta":1195,"Ġsheath":1196,"Ġpre":1197,"toid":1198,"Ġbronch":1199,"oplite":1200,"Ġlung":1201,"Ġgen":1202,"19":1203,"enis":1204,"ract":1205,"Ġcranial":1206,"illa":1207,"ĠSuperficial":1208,"Ġlevel":1209,"Ġhem":1210,"ongue":1211,"Ġtiss":1212,"Anterior":1213,"Ġpectoral":1214,"yroid":1215,"Lateral":1216,"Superior":1217,"ius":1218,"ive":1219,"loc":1220,"tum":1221,"Ġap":1222,"Ġcoron":1223,"astom":1224,"Ġeach":1225,"Ġlab":1226,"unction":1227,"vertebral":1228,"Ġalong":1229,"Ġprocesses":1230,"oth":1231,"sule":1232,"Ġes":1233,"Ġtheir":1234,"ural":1235,"Ġbut":1236,"Ġmost":1237,"Ġmotor":1238,"osse":1239,"Ġdesce":1240,"anterior":1241,"Ġaris":1242,"Ġarticular":1243,"Ġsuperiorly":1244,"oneur":1245,"Ġdrainage":1246,"Ġtriangle":1247,"imp":1248,"ote":1249,"Åĵ":1250,"tib":1251,"han":1252,"Ġtal":1253,"âĤ¬âĢ¢":1254,"irc":1255,"Ġparts":1256,"Ġvenous":1257,"11":1258,"gular":1259,"teryg":1260,"row":1261,"reas":1262,"Ġleg":1263,"Ġwhere":1264,"ĠNer":1265,"arsal":1266,"Ġsmall":1267,"ou":1268,"rain":1269,"Ġfour":1270,"rous":1271,"Ġang":1272,"Ġlongus":1273,"zygos":1274,"ak":1275,"med":1276,"superior":1277,"Ġ.":1278,"Ġ9":1279,"ĠX":1280,"Ġone":1281,"Ġstern":1282,"ustra":1283,"lan":1284,"Ġglute":1285,"ĠArter":1286,"Ġradial":1287,"Ġbecause":1288,"Ġganglion":1289,"Ġbursa":1290,"hip":1291,"iast":1292,"ony":1293,"are":1294,"arpal":1295,"Ġcor":1296,"Ġfloor":1297,"Ġdire":1298,"atel":1299,"ynov":1300,"ele":1301,"tu":1302,"Ġcross":1303,"Ġbase":1304,"ranium":1305,"ĠEx":1306,"vision":1307,"Ġfemale":1308,"ĠRa":1309,"ribu":1310,"Ġsensory":1311,"ympanic":1312,"eth":1313,"rist":1314,"Ġthese":1315,"Ġpub":1316,"Ġpain":1317,"Ġmin":1318,"ĠCoron":1319,"Ġnucle":1320,"omatic":1321,"Ġanal":1322,"chle":1323,"ontal":1324,"Ġspine":1325,"Ġposteriorly":1326,"Ġhumer":1327,"Ġinferiorly":1328,"Ġpalmar":1329,"Ġshow":1330,"Ġtibial":1331,"Ġcapsule":1332,"Ġsitu":1333,"Ġmandible":1334,"Ġmouth":1335,"Ex":1336,"Posterior":1337,"Ġed":1338,"Ġab":1339,"lected":1340,"Ġtongue":1341,"opharyn":1342,"Ġspace":1343,"Inferior":1344,"irst":1345,"imen":1346,"phragm":1347,"Ġcontinu":1348,"Ġbrachial":1349,"Ġfold":1350,"Ġaponeur":1351,"ynovial":1352,"lud":1353,"ms":1354,"uod":1355,"ardi":1356,"Ġcutaneous":1357,"Ġmove":1358,"Ġend":1359,"Ġplantar":1360,"lavicular":1361,"opliteal":1362,"gem":1363,"arter":1364,"Ġser":1365,"icular":1366,"opha":1367,"Ġventric":1368,"Ġatri":1369,"aging":1370,"tionship":1371,"ratus":1372,"Ġtissue":1373,"33":1374,"lin":1375,"moid":1376,"ĠĊ":1377,"ence":1378,"Ġpi":1379,"Ġmusc":1380,"Ġgro":1381,"Ġexc":1382,"Ġmedially":1383,"Ġtrac":1384,"Ġdorsal":1385,"Ġpulmonary":1386,"pla":1387,"ore":1388,"Ġsympathetic":1389,"ating":1390,"Ġel":1391,"Ġvia":1392,"Ġloc":1393,"Ġmain":1394,"urfaces":1395,"tachment":1396,"enteric":1397,"Ġaxillary":1398,"17":1399,"ctions":1400,"duc":1401,"pro":1402,"rum":1403,"orum":1404,"Ġsur":1405,"ists":1406,"act":1407,"ings":1408,"idne":1409,"dies":1410,"Ġmax":1411,"ourse":1412,"illustra":1413,"Ġradi":1414,"Ġdigits":1415,".,":1416,"13":1417,"27":1418,"Medial":1419,"mandibular":1420,"inter":1421,"inferior":1422,"ust":1423,"Ġmar":1424,"roc":1425,"ance":1426,"ulum":1427,"Ġhal":1428,"Ġglands":1429,"eatures":1430,"Ġrami":1431,"15":1432,"chem":1433,"par":1434,"pos":1435,"pog":1436,"Ġpteryg":1437,"lid":1438,"Ġsupra":1439,"Ġval":1440,"Ġfibular":1441,"Ġinterosse":1442,"Ġresults":1443,"ynap":1444,"Ġribs":1445,"ĠRadiograph":1446,"40":1447,"der":1448,"sub":1449,"scap":1450,"Ġsurfaces":1451,"estib":1452,"Ġple":1453,"ligam":1454,"Ġnear":1455,"Ġwas":1456,"Ġanastom":1457,"Ġrece":1458,"Ġlob":1459,"ĠÃ¢":1460,"iatic":1461,"olar":1462,"Ġtemporal":1463,"Ġsepar":1464,"Ġvisceral":1465,"Ġnasal":1466,"ĠCoronal":1467,"23":1468,"patic":1469,"view":1470,"Ġimp":1471,"ard":1472,"Ġinnervation":1473,"Ġep":1474,"Ġarticula":1475,"ations":1476,"Ġdisc":1477,"Ġwithin":1478,"ĠRe":1479,"rator":1480,"ression":1481,"Ġseptum":1482,"occy":1483,"Ġcartilage":1484,"Ġspecimen":1485,"Ġaponeurosis":1486,"16":1487,"48":1488,"ix":1489,"ps":1490,"pinal":1491,"ugular":1492,"way":1493,"Ġfirst":1494,"Ġbic":1495,"ingual":1496,"ĠLateral":1497,"Ġview":1498,"etal":1499,"ranches":1500,"ysis":1501,"iliary":1502,"Ġkidne":1503,"velop":1504,"ondy":1505,"dduct":1506,"Ġpharynx":1507,"Ġsupplies":1508,"Ġdiaphragm":1509,"turator":1510,"ribution":1511,"Ġhumerus":1512,");":1513,"49":1514,"Th":1515,"jac":1516,"Ġpanc":1517,"Ġind":1518,"Ġwe":1519,"unic":1520,"ically":1521,"Ġforms":1522,"Ġgreat":1523,"ĠNerves":1524,"ynaptic":1525,"Ġillustra":1526,"Ġacc":1527,"iss":1528,"Ġne":1529,"iate":1530,"Ġperitone":1531,"ĠThis":1532,"Ġrectus":1533,"Ġgluteal":1534,"18":1535,"29":1536,"30":1537,"bow":1538,"ives":1539,"munic":1540,"oul":1541,"Ġthey":1542,"terolateral":1543,"lev":1544,"Ġcalcane":1545,"ĠAnterior":1546,"Ġarea":1547,"lexes":1548,"Ġdivid":1549,"Ġformed":1550,"Ġtendons":1551,"Ġcover":1552,"Ġureth":1553,"Ġmesenteric":1554,"Ġesopha":1555,"chlear":1556,"24":1557,"36":1558,"ca":1559,"lic":1560,"ortic":1561,"Ġfat":1562,"Ġback":1563,"Ġmuc":1564,"Ġnose":1565,"rigin":1566,"Ġwrist":1567,"Ġ19":1568,"incter":1569,"Ġass":1570,"Ġdivision":1571,"asses":1572,"sser":1573,"Ġcolum":1574,"Ġteeth":1575,"halan":1576,"Ġlymph":1577,"lavian":1578,"Ġtubercle":1579,"Ġcoronary":1580,"25":1581,"ffer":1582,"gus":1583,"Ġim":1584,"Ġthen":1585,"Ġpatel":1586,"Ġcut":1587,"Ġcostal":1588,"Ġfract":1589,"Ġbul":1590,"Ġbladder":1591,"its":1592,"osed":1593,"any":1594,"atus":1595,"Ġear":1596,"Ġrefer":1597,"Ġlar":1598,"ĠBones":1599,"Ġliver":1600,"Ġcaus":1601,"uction":1602,"axial":1603,"Ġsciatic":1604,"Ġcolon":1605,"lavicle":1606,"Ġviscera":1607,"ardium":1608,"Ġhalf":1609,"scapular":1610,"45":1611,"ains":1612,"ces":1613,"ke":1614,"alp":1615,"Ġoften":1616,"orm":1617,"oris":1618,"enti":1619,"Ġpopliteal":1620,"Ġcirc":1621,"Ġbas":1622,"ick":1623,"entral":1624,"oses":1625,"Ġdo":1626,"ĠLymp":1627,"Ġrec":1628,"emale":1629,"ĠAttachment":1630,"Ġhip":1631,"Ġresult":1632,"Ġinclud":1633,"Ġlarynx":1634,"Ġinjur":1635,"Ġnucleus":1636,"Ġcolumn":1637,"26":1638,"ae":1639,"gn":1640,"min":1641,"out":1642,"transverse":1643,"Ġqu":1644,"Ġaur":1645,"Ġaround":1646,"Ġthyroid":1647,"Ġmy":1648,"rem":1649,"ant":1650,"asympathetic":1651,"Ġgra":1652,"unn":1653,"bduct":1654,"cessory":1655,"Ġsections":1656,"Ġlaryngeal":1657,"Ġreflected":1658,"Ġminor":1659,"44":1660,"55":1661,"Origin":1662,"eg":1663,"ietal":1664,"alatine":1665,"ull":1666,"riform":1667,"alled":1668,"Ġhepatic":1669,"ately":1670,"Ġdigitorum":1671,"Ġmetac":1672,"jacent":1673,"37":1674,"Ar":1675,"gra":1676,"ple":1677,"Ġy":1678,"Ġur":1679,"thes":1680,"inum":1681,"Ġsem":1682,"est":1683,"Ġpa":1684,"Ġpenis":1685,"Ġclavicle":1686,"ret":1687,"Ġdem":1688,"atarsal":1689,"orsal":1690,"ĠSer":1691,"ĠSuperior":1692,"Ġjugular":1693,"Ġprost":1694,"Ġsinuses":1695,"Ġtibia":1696,"Ġbrachi":1697,"Ġextends":1698,"Ġextensor":1699,"Ġangle":1700,"iastinum":1701,"Ġtrachea":1702,"Ġinterosseous":1703,"Ġbiceps":1704,"22":1705,"46":1706,"Passes":1707,"pec":1708,"rontal":1709,"vol":1710,"read":1711,"ecause":1712,"abd":1713,"ept":1714,"Ġsph":1715,"nerve":1716,"rachial":1717,"Ġsacro":1718,"Ġrectum":1719,"Ġcapitis":1720,"Ġdevelop":1721,"Ġcerebral":1722,"Ġorbit":1723,"uoden":1724,"Ġelbow":1725,"Ġmaxillary":1726,"ligament":1727,"Ġkidney":1728,"28":1729,"35":1730,"39":1731,"ilateral":1732,"iogra":1733,"vator":1734,"Ġother":1735,"Ġsec":1736,"Ġsome":1737,"usion":1738,"Ġbel":1739,"astoid":1740,"upra":1741,"Ġlac":1742,"Ġlie":1743,"uns":1744,"Ġpassing":1745,"Ġoccipital":1746,"Ġinfra":1747,"entricular":1748,"Ġposition":1749,"Ġventricle":1750,"Ġsphincter":1751,"14":1752,"34":1753,"66":1754,"app":1755,"comp":1756,"from":1757,"humer":1758,"igur":1759,"joint":1760,"mus":1761,"wall":1762,"Ġ).":1763,"ros":1764,"ittal":1765,"ĠCN":1766,"Ġtympanic":1767,"verview":1768,"Ġvar":1769,"Ġvestib":1770,"Ġperic":1771,"lohyoid":1772,"Ġfibrous":1773,"umbil":1774,"Ġall":1775,"agittal":1776,"iliac":1777,"ĠIt":1778,"Ġpalm":1779,"Ġcontra":1780,"occipital":1781,"Ġportal":1782,"Ġeyelid":1783,"Ġappro":1784,"Ġuterus":1785,"fferent":1786,"ĠLymphatic":1787,"uodenum":1788,"38":1789,"50":1790,"ball":1791,"flex":1792,"iti":1793,"ty":1794,"with":1795,"eral":1796,"led":1797,"ised":1798,"istal":1799,"Ġcalled":1800,"urr":1801,"Ġmalle":1802,"Ġglen":1803,"etab":1804,"trong":1805,"Ġorg":1806,"Ġcarpal":1807,"ages":1808,"ĠIm":1809,"Ġparietal":1810,"Ġoccurs":1811,"Ġbodies":1812,"pez":1813,"ermatom":1814,"Ġsubclavian":1815,"ĠArteries":1816,"Ġatrium":1817,"chematic":1818,"Ġpleura":1819,"abdom":1820,"56":1821,"com":1822,"ject":1823,"ĠĠ":1824,"Ġadduct":1825,"Ġaortic":1826,"Ġov":1827,"head":1828,"upp":1829,"lying":1830,"Ġtes":1831,"Ġisch":1832,"ransvers":1833,"Ġobturator":1834,"ĠOverview":1835,"ressure":1836,"Ġaccessory":1837,"Ġaxilla":1838,"Ġganglia":1839,"Ġlymphatic":1840,"Ġindic":1841,"Ġbulb":1842,"Ġlarge":1843,"Ġquad":1844,"ĠSerial":1845,"32":1846,"68":1847,"70":1848,"Pro":1849,"mer":1850,"uff":1851,"Ġ200":1852,"Ġthan":1853,"ened":1854,"Ġcoccy":1855,"Ġbrain":1856,"rect":1857,"osa":1858,"osto":1859,"âĤ¬âĢĿ":1860,"ascular":1861,"Ġsubmandibular":1862,"Ġpalate":1863,"Ġpalatine":1864,"test":1865,"riceps":1866,"Ġducts":1867,"Ġarches":1868,"Ġopening":1869,"eatus":1870,"Ġfollow":1871,"Ġcartilages":1872,"Ġportion":1873,"rimal":1874,"Ġroots":1875,"Ġbronchi":1876,"Ġlungs":1877,"Ġtalus":1878,"geminal":1879,"Ġgroove":1880,"Ġlocated":1881,"Ġurethra":1882,"Ġesophagus":1883,"31":1884,"54":1885,"58":1886,"Fig":1887,"Main":1888,"line":1889,"muscle":1890,"ture":1891,"ĠK":1892,"Ġazygos":1893,"Ġsynovial":1894,"Ġfeatures":1895,"Ġinnerv":1896,"Ġinser":1897,"itud":1898,"haped":1899,"atomical":1900,"Ġasce":1901,"Ġlesser":1902,"Internal":1903,"umbers":1904,"onstra":1905,"ears":1906,"istribution":1907,"Ġattachments":1908,"ells":1909,"Ġvena":1910,"Ġrelationship":1911,"Ġhyoid":1912,"Ġenters":1913,"lock":1914,"Ġcrosses":1915,"pecial":1916,"igure":1917,"itudinal":1918,"57":1919,"59":1920,"80":1921,"deep":1922,"fter":1923,"medial":1924,"ns":1925,"red":1926,"inary":1927,"Ġthick":1928,"ters":1929,"Ġcub":1930,"Ġmeatus":1931,"osc":1932,"ides":1933,"iddle":1934,"opalatine":1935,"own":1936,"Ġspread":1937,"Ġhor":1938,"Ġdist":1939,"Ġonly":1940,"ĠRight":1941,"Ġcava":1942,"Ġconn":1943,"Ġattachment":1944,"Ġbound":1945,"Ġadjacent":1946,"Ġvagina":1947,"Ġbreast":1948,"Ġpectoralis":1949,"ĠImaging":1950,"69":1951,"Muscle":1952,"bital":1953,"cus":1954,"ok":1955,"ward":1956,"Ġer":1957,"Ġag":1958,"Ġthin":1959,"isible":1960,"Ġcentral":1961,"Ġmore":1962,"veal":1963,"ility":1964,"ame":1965,"Ġwere":1966,"tomach":1967,"ĠFemale":1968,"emoral":1969,"Innervation":1970,"Ġfibula":1971,"ĠInnervation":1972,"ximately":1973,"Ġcollateral":1974,"Ġshort":1975,"Ġdrain":1976,"Ġcommonly":1977,"Ġdorsum":1978,"Ġcompartments":1979,"Ġmetatarsal":1980,"Ġcerebell":1981,"Ġtuberos":1982,"Ġsubcutaneous":1983,"Ġhemis":1984,"Ġdescends":1985,"Ġmovements":1986,"oulder":1987,"21":1988,"67":1989,"Ner":1990,"fib":1991,"ll":1992,"not":1993,"yp":1994,"thal":1995,"Ġout":1996,"Ġsig":1997,"Ġpres":1998,"Ġpressure":1999,"Ġcranium":2000,"Ġinvol":2001,"Ġends":2002,"Ġreveal":2003,"eltoid":2004,"ephal":2005,"ĠSchematic":2006,"Ġjoin":2007,"Ġmediastinum":2008,"Ġrenal":2009,"imus":2010,"pectoral":2011,"Ġfacet":2012,"isceral":2013,"Ġsupplied":2014,"lossal":2015,"mediate":2016,"opharynx":2017,"Ġmargin":2018,"Ġpterygoid":2019,"unnel":2020,"riformis":2021,"Ġmetacarpal":2022,"Ġdemonstra":2023,"humeral":2024,"43":2025,"47":2026,"53":2027,"60":2028,"avic":2029,"iform":2030,"mm":2031,"muscles":2032,"ses":2033,"ton":2034,"uce":2035,"thmus":2036,"lete":2037,"Ġsides":2038,"ĠCranial":2039,"ily":2040,"ult":2041,"epress":2042,"Ġarterial":2043,"olus":2044,"olog":2045,"geus":2046,"Ġlevator":2047,"Ġcommunic":2048,"ulation":2049,"Ġscalp":2050,"Ġlongitudinal":2051,"soas":2052,"Ġsacral":2053,"Ġattached":2054,"rest":2055,"Ġsty":2056,"Ġtube":2057,"Ġrectal":2058,"trict":2059,"Ġnotch":2060,"Ġhypog":2061,"Ġrotates":2062,"Ġeyeball":2063,"rimary":2064,"Ġsole":2065,"Ġorbital":2066,"Ġuterine":2067,"Ġsternum":2068,"Ġillustration":2069,"Ġneur":2070,"Ġperitoneum":2071,"Ġinjury":2072,"avicular":2073,"79":2074,"ied":2075,"por":2076,"str":2077,"Ġumbil":2078,"ination":2079,"Ġthumb":2080,"ises":2081,"Ġmening":2082,"reat":2083,"ĠWhen":2084,"omes":2085,"Ġretra":2086,"ĠBlood":2087,"ĠBony":2088,"oustic":2089,"ollic":2090,"Ġjust":2091,"Ġparotid":2092,"Ġtrapez":2093,"Ġplane":2094,"Ġplexuses":2095,"Ġsever":2096,"ough":2097,"Ġmuscular":2098,"Ġlobe":2099,"Ġpancreas":2100,"Ġbrachii":2101,"Ġbelly":2102,"abdominal":2103,"thalm":2104,"52":2105,"Distribution":2106,"cl":2107,"clavicular":2108,"io":2109,"most":2110,"ohumeral":2111,"erteb":2112,"ind":2113,"aries":2114,"Ġpollic":2115,"rains":2116,"Ġciliary":2117,"urc":2118,"Ġface":2119,"osus":2120,"artment":2121,"Ġsuper":2122,"Ġspaces":2123,"Ġmater":2124,"Ġcardi":2125,"traso":2126,"tructure":2127,"Ġacoustic":2128,"Ġoccur":2129,"Ġresulting":2130,"Ġpharyngeal":2131,"Ġsegment":2132,"ĠExternal":2133,"Ġfolds":2134,"Ġvalve":2135,"ormal":2136,"urrent":2137,"Nerve":2138,"Ġpollicis":2139,"Le":2140,"de":2141,"dy":2142,"ific":2143,"ness":2144,"rd":2145,"sh":2146,"ven":2147,"ved":2148,"Ġaway":2149,"inis":2150,"Ġoff":2151,"ild":2152,"Ġtons":2153,"Ġanes":2154,"ĠMedial":2155,"Ġisthmus":2156,"insic":2157,"Ġgives":2158,"ĠSub":2159,"ement":2160,"uber":2161,"Ġproduc":2162,"trinsic":2163,"allb":2164,"perone":2165,"tsynaptic":2166,"Ġconve":2167,"Ġsacrum":2168,"Ġlayers":2169,"Ġboth":2170,"Ġinfection":2171,"luid":2172,"uscular":2173,"ifurc":2174,"ized":2175,"Ġretro":2176,"Ġureter":2177,"Ġterm":2178,"Ġorigin":2179,"Ġbrevis":2180,"ĠRela":2181,"Ġaccomp":2182,"Ġlacrimal":2183,"Ġcardiac":2184,"41":2185,"51":2186,"77":2187,"Comp":2188,"cutaneous":2189,"ever":2190,"kin":2191,"shaped":2192,"ventricular":2193,"wh":2194,"erap":2195,"thmoid":2196,"Ġomental":2197,"Ġthorax":2198,"ork":2199,"Ġsite":2200,"tim":2201,"ish":2202,"Ġcys":2203,"Ġchan":2204,"Ġfa":2205,"Ġbony":2206,"Ġblock":2207,"lat":2208,"lated":2209,"osing":2210,"Ġduodenum":2211,"ilar":2212,"temporal":2213,"asal":2214,"Ġtransvers":2215,"Ġtriceps":2216,"Ġtunnel":2217,"omedial":2218,"vern":2219,"Ġ10":2220,"Ġlumb":2221,"Ġlingual":2222,"unt":2223,"Ġfore":2224,"ocal":2225,"Ġring":2226,"axillary":2227,"ofibular":2228,"ribut":2229,"Ġparal":2230,"under":2231,"III":2232,"Ġtract":2233,"Ġskele":2234,"Ġattaches":2235,"tively":2236,"Ġteres":2237,"Ġdescending":2238,"Ġpatella":2239,"Ġauric":2240,"iogram":2241,"Ġsecond":2242,"Ġtuberosity":2243,"allbladder":2244,"42":2245,"78":2246,"Course":2247,"gins":2248,"jun":2249,"val":2250,"vity":2251,"Ġzyg":2252,"inac":2253,"inatus":2254,"lec":2255,"aria":2256,"Ġsuch":2257,"Ġpe":2258,"Ġphalan":2259,"ise":2260,"ision":2261,"Ġfing":2262,"Ġflow":2263,"lay":2264,"icondy":2265,"ĠClin":2266,"Ġdermatom":2267,"veolar":2268,"uloc":2269,"ulmonary":2270,"ider":2271,"amina":2272,"Ġanterolateral":2273,"Ġepi":2274,"Ġethmoid":2275,"ade":2276,"ired":2277,"Ġcause":2278,"ĠInferior":2279,"peritone":2280,"Ġwalls":2281,"udend":2282,"Ġdigital":2283,"spinatus":2284,"Ġtrigeminal":2285,"Ġused":2286,"pex":2287,"Ġsegmental":2288,"Ġconsists":2289,"Ġarises":2290,"Ġdirect":2291,"artery":2292,"rochan":2293,"Ġdivides":2294,"Ġmucosa":2295,"Ġfracture":2296,"trasound":2297,"Ġterminal":2298,"Ġphalanx":2299,"Deep":2300,"Ob":2301,"con":2302,"cont":2303,"na":2304,"oins":2305,"ook":2306,"Ġabduct":2307,"Ġafter":2308,"Ġpat":2309,"Ġcr":2310,"Ġcosto":2311,"Ġcrest":2312,"Ġfluid":2313,"Ġintra":2314,"icine":2315,"rochlear":2316,"acral":2317,"Ġtrans":2318,"Ġemer":2319,"ability":2320,"ternus":2321,"Ġareas":2322,"Ġjunction":2323,"Ġscan":2324,"ĠIV":2325,"ĠIII":2326,"Ġsubscapular":2327,"Ġregions":2328,"ĠNote":2329,"Ġpalp":2330,"Ġdigastric":2331,"Ġacetab":2332,"ize":2333,"Ġnasopharynx":2334,"ĠperineumÃ¢":2335,"Ġvagus":2336,"Ġsegments":2337,"Ġprev":2338,"lanto":2339,"Ġcontinuous":2340,"Ġserratus":2341,"Ġpier":2342,"Ġsurg":2343,"Ġsurrou":2344,"Ġreceiv":2345,"Ġurinary":2346,"Ġprostate":2347,"Ġpericardium":2348,"Ġcontraction":2349,"Ġtestis":2350,"testine":2351,"oscop":2352,"rainstem":2353,"erapy":2354,"udendal":2355,"rochanter":2356,"64":2357,"65":2358,"Motor":2359,"Term":2360,"iated":2361,"lue":2362,"otom":2363,"ry":2364,"wing":2365,"Ġile":2366,"Ġapex":2367,"orbital":2368,"Ġcorac":2369,"Ġfree":2370,"Ġfrontal":2371,"Ġband":2372,"reatic":2373,"ulus":2374,"umflex":2375,"Ġtur":2376,"Ġreach":2377,"ĠLigam":2378,"Ġlo":2379,"ĠBas":2380,"Ġlip":2381,"pharyn":2382,"Ġheads":2383,"fore":2384,"Ġforming":2385,"inae":2386,"Ġabdominis":2387,"Ġoptic":2388,"Ġramus":2389,"ounds":2390,"eled":2391,"Ġshowing":2392,"issure":2393,"levates":2394,"Ġcalcaneus":2395,"ential":2396,"Ġrecurrent":2397,"Ġmalleolus":2398,"Ġadductor":2399,"reatment":2400,"thalmic":2401,"ertebral":2402,"71":2403,"73":2404,"86":2405,"Flexes":2406,"ath":2407,"ful":2408,"mit":2409,"membran":2410,"noid":2411,"ound":2412,"superficial":2413,"tuber":2414,"ynd":2415,"ines":2416,"Ġoss":2417,"onom":2418,"left":2419,"arc":2420,"arrow":2421,"ese":2422,"enc":2423,"Ġped":2424,"Ġcourse":2425,"land":2426,"lamm":2427,"Ġmas":2428,"ental":2429,"ently":2430,"Ġdura":2431,"inguinal":2432,"Ġtympan":2433,"omal":2434,"omandibular":2435,"ĠMass":2436,"tomy":2437,"ĠBranches":2438,"ĠBecause":2439,"ĠStructures":2440,"ema":2441,"ĠArticular":2442,"iazygos":2443,"ecting":2444,"Ġspinous":2445,"Ġjoins":2446,"Ġprovid":2447,"utonom":2448,"Ġdisloc":2449,"Ġdispla":2450,"ucc":2451,"ymph":2452,"Ġalveolar":2453,"ĠInternal":2454,"ĠInguinal":2455,"Ġfemoris":2456,"Ġcondy":2457,"Ġmembranous":2458,"Ġbecome":2459,"Ġclin":2460,"Ġretinac":2461,"uchal":2462,"Ġmandibular":2463,"Ġchild":2464,"Ġconstrict":2465,"lossus":2466,"ĠMedicine":2467,"Ġextension":2468,"Ġsheaths":2469,"Ġpubic":2470,"Ġshown":2471,"Ġedition":2472,"Ġpiriformis":2473,"Ġradius":2474,"ainst":2475,"Ġapproximately":2476,"Ġorgans":2477,"Ġhemisph":2478,"ephalic":2479,"ĠLigaments":2480,"utonomic":2481,"83":2482,"Distal":2483,"Superficial":2484,"cement":2485,"ee":2486,"fra":2487,"hoid":2488,"ious":2489,"numbers":2490,"part":2491,"ren":2492,"zed":2493,"Ġunder":2494,"through":2495,"though":2496,"onavicular":2497,"teroin":2498,"let":2499,"Ġstrong":2500,"Ġpsoas":2501,"Ġprimary":2502,"Ġcells":2503,"Ġfasc":2504,"Ġbro":2505,"Ġbile":2506,"Ġbifurc":2507,"region":2508,"itoris":2509,"lies":2510,"vertic":2511,"ĠPh":2512,"Ġlen":2513,"ocalcane":2514,"Ġcarpi":2515,"Ġallow":2516,"Ġconc":2517,"Ġflexion":2518,"Ġplate":2519,"ferens":2520,"resp":2521,"Ġdistally":2522,"Ġsites":2523,"serve":2524,"Ġthirds":2525,"Ġarise":2526,"ĠArterial":2527,"Ġmovement":2528,"gement":2529,"Ġischial":2530,"Ġagainst":2531,"Ġcystic":2532,"Ġskeleton":2533,"icondyle":2534,"ĠClinical":2535,"teroinferior":2536,"61":2537,"62":2538,"63":2539,"72":2540,"81":2541,"SF":2542,"col":2543,"duct":2544,"duce":2545,"eal":2546,"lot":2547,"ooth":2548,"side":2549,"supp":2550,"Ġact":2551,"inator":2552,"Ġthere":2553,"orr":2554,"Ġseen":2555,"enital":2556,"Ġph":2557,"Ġcm":2558,"Ġcal":2559,"Ġcourtesy":2560,"Ġfissure":2561,"Ġintestine":2562,"teg":2563,"ulom":2564,"omastoid":2565,"Ġanatomical":2566,"ople":2567,"ophalan":2568,"Ġgast":2569,"Ġlam":2570,"unctions":2571,"ector":2572,"see":2573,"seter":2574,"ociated":2575,"Ġhere":2576,"iral":2577,"Ġruns":2578,"phthalmic":2579,"ĠTherapy":2580,"ĠThese":2581,"Ġradiograph":2582,"Ġroof":2583,"ximally":2584,"ĠOn":2585,"Ġstud":2586,"Ġulna":2587,"Ġbecomes":2588,"Ġsensation":2589,"izontal":2590,"Ġsoft":2591,"Ġenlar":2592,"Ġhemiazygos":2593,"Ġarising":2594,"ĠXI":2595,"Ġdirected":2596,"Ġexcept":2597,"Ġseparated":2598,"pinalis":2599,"Ġviews":2600,"Ġcovering":2601,"Ġdoes":2602,"removed":2603,"Ġglenohumeral":2604,"Ġcoccyx":2605,"Ġcubital":2606,"Ġsigmoid":2607,"struction":2608,"Ġretracted":2609,"ĠRelationship":2610,"Ġpattern":2611,"Ġtympani":2612,"ophalangeal":2613,"82":2614,"Flex":2615,"On":2616,"Visceral":2617,"ato":2618,"ck":2619,"co":2620,"culom":2621,"fascia":2622,"ipectoral":2623,"king":2624,"ood":2625,"rical":2626,"ta":2627,"une":2628,"Ġround":2629,"that":2630,"Ġair":2631,"arp":2632,"Ġsli":2633,"Ġsynd":2634,"rae":2635,"ĠAx":2636,"Ġcuff":2637,"usp":2638,"Ġfunction":2639,"Ġbund":2640,"Ġmade":2641,"ĠTreatment":2642,"ulti":2643,"ulnar":2644,"Ġtarsal":2645,"ommon":2646,"Ġvocal":2647,"Ġgir":2648,"ĠSagittal":2649,"iation":2650,"ects":2651,"owing":2652,"olumbar":2653,"Ġforamina":2654,"Ġexam":2655,"Ġproced":2656,"Ġproduce":2657,"Ġatlas":2658,"alluc":2659,"aphen":2660,"irth":2661,"Ġpers":2662,"Ġcaud":2663,"Ġsupport":2664,"ĠII":2665,"Ġparti":2666,"Ġparasympathetic":2667,"Ġflexed":2668,"undus":2669,"rating":2670,"Ġdrains":2671,"Ġductus":2672,"Ġlimbs":2673,"Ġabdomen":2674,"Ġincreas":2675,"Ġrelated":2676,"Ġopen":2677,"Ġexpose":2678,"Ġclitoris":2679,"lavipectoral":2680,"iastinal":2681,"External":2682,"opharyngeal":2683,"Ġweak":2684,"Ġcauses":2685,"ities":2686,"Ġquadratus":2687,"Proximal":2688,"pecially":2689,"Ġaccompany":2690,"Ġepiph":2691,"peritoneal":2692,"membrane":2693,"Ġbroad":2694,"culomotor":2695,"Ġgirdle":2696,"allucis":2697,"aphenous":2698,"74":2699,"Abduct":2700,"Dorsal":2701,"For":2702,"Gen":2703,"Note":2704,"Sub":2705,"Skin":2706,"by":2707,"branches":2708,"can":2709,"lingual":2710,"ma":2711,"nic":2712,"ole":2713,"ocle":2714,"tain":2715,"ving":2716,"Ġafferent":2717,"Ġos":2718,"Ġthorac":2719,"orn":2720,"onents":2721,"teros":2722,"ardial":2723,"Ġstomach":2724,"Ġpet":2725,"ration":2726,"ĠAl":2727,"ispinalis":2728,"Ġcric":2729,"Ġbucc":2730,"Ġint":2731,"Ġinternus":2732,"ĠCranium":2733,"ĠClay":2734,"limb":2735,"acrom":2736,"vein":2737,"Ġtoe":2738,"uman":2739,"idomastoid":2740,"ĠDM":2741,"ĠDia":2742,"ĠMale":2743,"oph":2744,"ĠFig":2745,"ĠFeatures":2746,"ĠFigure":2747,"Ġloss":2748,"adial":2749,"ĠPro":2750,"ĠPounds":2751,"old":2752,"Ġhallucis":2753,"Ġdise":2754,"phal":2755,"Ġcavern":2756,"uces":2757,"Ġschem":2758,"Ġinterventricular":2759,"nerves":2760,"Ġcompress":2761,"Ġcomplete":2762,"Ġcontact":2763,"Ġsectioned":2764,"ĠOb":2765,"spinal":2766,"formed":2767,"Ġexpression":2768,"Ġexposed":2769,"escends":2770,"Ġrotator":2771,"ĠJH":2772,"ffected":2773,"Ġlabeled":2774,"Ġpubis":2775,"Ġabs":2776,"uodenal":2777,"arteries":2778,"Ġanastomoses":2779,"Ġimport":2780,"Ġepig":2781,"Ġepicondyle":2782,"Ġpancreatic":2783,"Ġdevelopment":2784,"Ġrelationships":2785,"Ġumbilical":2786,"Ġmeningeal":2787,"Ġtonsil":2788,"Ġpeople":2789,"ĠBasic":2790,"lammation":2791,"ĠMassage":2792,"Ġcondyle":2793,"tegrating":2794,"ocleidomastoid":2795,"75":2796,"89":2797,"Elevates":2798,"Right":2799,"Runs":2800,"be":2801,"between":2802,"eli":2803,"gth":2804,"mius":2805,"patel":2806,"sion":2807,"uli":2808,"va":2809,"vessels":2810,"well":2811,"eres":2812,"ervical":2813,"Ġoment":2814,"Ġthose":2815,"arenal":2816,"Ġsomatic":2817,"Ġsame":2818,"esc":2819,"ene":2820,"Ġble":2821,"Ġmenis":2822,"ĠCutaneous":2823,"acial":2824,"Ġtoward":2825,"Ġnuchal":2826,"Ġarrow":2827,"nemius":2828,"ĠPelvic":2829,"Ġsple":2830,"ections":2831,"Ġproximally":2832,"Ġatlanto":2833,"Ġher":2834,"Ġhigh":2835,"Ġonto":2836,"Ġred":2837,"Ġperi":2838,"ourses":2839,"Ġscans":2840,"ovascular":2841,"Ġintervertebral":2842,"ĠIX":2843,"ĠIf":2844,"anges":2845,"ĠVII":2846,"Ġcontain":2847,"cervical":2848,"Ġmidline":2849,"Ġflexes":2850,"Ġsupplying":2851,"Ġaxis":2852,"Ġrelation":2853,"ĠJoint":2854,"pirat":2855,"Ġorific":2856,"Ġgenital":2857,"rocnemius":2858,"Ġpterygopalatine":2859,"Ġperitoneal":2860,"Ġmucous":2861,"Ġassociated":2862,"Ġincluding":2863,"retch":2864,"Ġfacets":2865,"Ġtrapezius":2866,"ification":2867,"Ġtransversus":2868,"Ġparalysis":2869,"Ġauricle":2870,"Ġzygomatic":2871,"Ġethmoidal":2872,"Ġdirectly":2873,"Ġsurrounding":2874,"Ġreceiving":2875,"Ġmasseter":2876,"Ġconstrictor":2877,"respond":2878,"76":2879,"88":2880,"90":2881,"As":2882,"Common":2883,"IV":2884,"Long":2885,"Transverse":2886,"ffic":2887,"fact":2888,"femoral":2889,"ger":2890,"got":2891,"ling":2892,"long":2893,"lusion":2894,"man":2895,"rin":2896,"rarenal":2897,"Ġage":2898,"alon":2899,"alis":2900,"Ġopp":2901,"teromedial":2902,"articula":2903,"tiss":2904,"Ġpap":2905,"Ġcur":2906,"Ġclavipectoral":2907,"Ġbirth":2908,"Ġman":2909,"Ġmulti":2910,"Ġinterior":2911,"Ġinfer":2912,"reater":2913,"osum":2914,"ĠTem":2915,"Ġdeltoid":2916,"Ġdepress":2917,"ases":2918,"upture":2919,"Ġtrochanter":2920,"chnic":2921,"Ġsuprarenal":2922,"Ġvol":2923,"Ġgallbladder":2924,"ĠSpinal":2925,"ĠSupra":2926,"ĠSalon":2927,"ĠPar":2928,"owever":2929,"Ġsperm":2930,"Ġsphen":2931,"Ġspiral":2932,"gether":2933,"sequ":2934,"Ġextra":2935,"oclavicular":2936,"Ġdiss":2937,"tended":2938,"ĠVisible":2939,"ĠAbdominal":2940,"version":2941,"Ġtendinous":2942,"ign":2943,"Ġshoulder":2944,"peb":2945,"Ġdeferens":2946,"tension":2947,"ifth":2948,"Ġsmooth":2949,"Ġvaginal":2950,"lossopharyngeal":2951,"ĠMedical":2952,"Ġbronchus":2953,"ĠNerve":2954,"ĠXII":2955,"lanchnic":2956,"Ġnuclei":2957,"Ġvalves":2958,"Ġreceives":2959,"Ġlobes":2960,"Ġassists":2961,"Ġcaused":2962,"Ġcircumflex":2963,"Ġauricular":2964,"Ġpath":2965,"Ġprostatic":2966,"Ġvestibular":2967,"Ġglenoid":2968,"common":2969,"Ġ2002":2970,"Ġhorizontal":2971,"Ġcerebellar":2972,"which":2973,"Ġforehead":2974,"Ġretinaculum":2975,"factory":2976,"gotympanic":2977,"ĠSalonen":2978,"Ġspermatic":2979,"84":2980,"85":2981,"91":2982,"Pelvic":2983,"Sh":2984,"aw":2985,"bec":2986,"den":2987,"dis":2988,"fied":2989,"iofibular":2990,"mo":2991,"otic":2992,"pass":2993,"structures":2994,"ues":2995,"ined":2996,"Ġthem":2997,"orts":2998,"Ġstra":2999,"Ġswall":3000,"Ġsagittal":3001,"Ġsaphenous":3002,"ener":3003,"Ġphal":3004,"Ġpudendal":3005,"Ġfifth":3006,"Ġmastoid":3007,"ites":3008,"itation":3009,"entor":3010,"ĠCol":3011,"ĠComp":3012,"acter":3013,"Ġnarrow":3014,"rid":3015,"rimar":3016,"ĠLumbar":3017,"Ġtens":3018,"ature":3019,"otential":3020,"Ġ11":3021,"dig":3022,"divid":3023,"ĠArms":3024,"Ġarteriogram":3025,"ubic":3026,"ational":3027,"Inter":3028,"Ġmagn":3029,"ocostal":3030,"ircle":3031,"ĠUl":3032,"tendinous":3033,"oralis":3034,"ensory":3035,"oglossus":3036,"oval":3037,"ecker":3038,"angular":3039,"ĠVertebral":3040,"Ġpalpeb":3041,"Ġtip":3042,"Ġresist":3043,"Ġcolor":3044,"Ġkn":3045,"Ġilio":3046,"Ġdissections":3047,"Ġdef":3048,"Ġopened":3049,"Ġreflexes":3050,"Ġextended":3051,"Ġorient":3052,"Ġespecially":3053,"Ġgluteus":3054,"Ġexcised":3055,"Ġfibularis":3056,"ĠRadiographs":3057,"Ġarticulates":3058,"ĠRegion":3059,"Ġinclude":3060,"rachialis":3061,"Ġindicate":3062,"Ġinnervates":3063,"Ġascending":3064,"Ġbounded":3065,"Ġhypogastric":3066,"Ġfauces":3067,"ulocutaneous":3068,"Ġsubscapularis":3069,"ymphysis":3070,"Ġconcha":3071,"acromial":3072,"Ġdisease":3073,"patellar":3074,"piratory":3075,"Ġphalanges":3076,"rimarily":3077,"ĠArmstrong":3078,"87":3079,"Cranial":3080,"En":3081,"Pla":3082,"Supra":3083,"Special":3084,"aud":3085,"ba":3086,"brain":3087,"ci":3088,"cti":3089,"cranial":3090,"ek":3091,"eur":3092,"ged":3093,"gland":3094,"ie":3095,"ls":3096,"ler":3097,"muscular":3098,"ning":3099,"pa":3100,"pus":3101,"sis":3102,"surface":3103,"tri":3104,"yed":3105,"Ġ),":3106,"Ġif":3107,"Ġvertic":3108,"internal":3109,"arach":3110,"Ġpage":3111,"ĠAction":3112,"isual":3113,"Ġcontents":3114,"ured":3115,"Ġfix":3116,"Ġbrainstem":3117,"lation":3118,"Ġmam":3119,"Ġintrinsic":3120,"rease":3121,"ĠCSF":3122,"lie":3123,"like":3124,"Ġdam":3125,"Ġdural":3126,"ranon":3127,"ilum":3128,"angeal":3129,"tex":3130,"ulla":3131,"aspect":3132,"ĠLe":3133,"Ġtyp":3134,"atri":3135,"atory":3136,"ĠMo":3137,"ĠMy":3138,"opelvic":3139,"Ġrecess":3140,"ĠBecker":3141,"epartment":3142,"ĠSch":3143,"mpor":3144,"Ġexit":3145,"ocol":3146,"Ġprof":3147,"Ġperfor":3148,"ensation":3149,"uciate":3150,"ulate":3151,"umber":3152,"Ġaspects":3153,"cessive":3154,"ĠInterior":3155,"Ġcannot":3156,"Ġacross":3157,"ginous":3158,"Ġultrasound":3159,"Ġunilateral":3160,"tensor":3161,"ography":3162,"Ġrefle":3163,"Ġclose":3164,"exc":3165,"Ġpostsynaptic":3166,"ived":3167,"tenoid":3168,"ĠMedian":3169,"Ġcoronal":3170,"ĠExpos":3171,"Ġcontinues":3172,"Ġmaxilla":3173,"ĠpharynxÃ¢":3174,"Ġweight":3175,"Ġillustrations":3176,"Ġimaging":3177,"Ġbases":3178,"Ġvestibule":3179,"Ġorgan":3180,"jects":3181,"Ġfollowing":3182,"Ġinnervated":3183,"Ġcerebellum":3184,"Ġpresent":3185,"Ġdemonstrating":3186,"Ġstyl":3187,"Ġhypoglossal":3188,"lecranon":3189,"Ġacetabular":3190,"ency":3191,"omalies":3192,"Ġhemisphere":3193,"Flexor":3194,"terosuperior":3195,"phalangeal":3196,"Ġimportant":3197,"eliac":3198,"welling":3199,"tissimus":3200,"Ġinferolateral":3201,"arachnoid":3202,"ĠExposure":3203,"AÃ¢":3204,"Cont":3205,"Function":3206,"JV":3207,"Mid":3208,"br":3209,"branch":3210,"circ":3211,"condy":3212,"ging":3213,"gangli":3214,"itive":3215,"ket":3216,"lfactory":3217,"middle":3218,"oto":3219,"pelvic":3220,"tw":3221,"vag":3222,"yrin":3223,"inate":3224,"Ġthenar":3225,"aring":3226,"artila":3227,"Ġsal":3228,"Ġstructure":3229,"Ġsize":3230,"Ġsymphysis":3231,"ences":3232,"tile":3233,"Ġpup":3234,"Ġpotential":3235,"Ġprimarily":3236,"Ġche":3237,"Ġcune":3238,"Ġmany":3239,"Ġins":3240,"osite":3241,"Ġtogether":3242,"ectomy":3243,"Ġno":3244,"identi":3245,"amoid":3246,"Ġtak":3247,"Ġani":3248,"Ġemb":3249,"Ġelev":3250,"Ġarc":3251,"ĠFlex":3252,"ads":3253,"Ġlike":3254,"ĠPart":3255,"owled":3256,"Ġsplanchnic":3257,"Ġlesion":3258,"Ġprotr":3259,"Ġhel":3260,"Ġwho":3261,"ĠHuman":3262,"Ġscal":3263,"yses":3264,"illar":3265,"Ġpassage":3266,"Ġpassages":3267,"Ġcontin":3268,"Ġparalle":3269,"Ġobstruction":3270,"ĠOf":3271,"ĠOr":3272,"Ġacrom":3273,"Ġdraw":3274,"spec":3275,"spinous":3276,"Ġtrunks":3277,"Ġhyp":3278,"Ġpharyngotympanic":3279,"Ġportions":3280,"Ġsystemic":3281,"Ġretina":3282,"Ġaddition":3283,"Ġinjected":3284,"Ġlabyrin":3285,"othyroid":3286,"anteriorly":3287,"Ġcorrespond":3288,"Ġdirection":3289,"Ġabove":3290,"Ġgroup":3291,"Ġtrache":3292,"Ġmainly":3293,"parasympathetic":3294,"Ġpleural":3295,"Ġnearly":3296,"Ġanastomose":3297,"Ġseparate":3298,"cavity":3299,"Ġcirculation":3300,"Ġmylohyoid":3301,"thesia":3302,"Ġapproach":3303,"Ġascends":3304,"Ġdistribution":3305,"fibers":3306,"shoulder":3307,"peroneal":3308,"peroneus":3309,"Ġconvex":3310,"ributaries":3311,"ariations":3312,"Ġfingers":3313,"Ġdermatome":3314,"Ġemerges":3315,"oscopic":3316,"otomes":3317,"Ġfascial":3318,"Ġgastrocnemius":3319,"ricals":3320,"arpophalangeal":3321,"Ġslight":3322,"Ġschematic":3323,"Ġorifice":3324,"ĠLeft":3325,"Ġlabyrinth":3326,"Adduct":3327,"Because":3328,"Depress":3329,"Descends":3330,"He":3331,"Par":3332,"Somatic":3333,"aider":3334,"blue":3335,"cular":3336,"down":3337,"eak":3338,"ejun":3339,"hragm":3340,"ito":3341,"laryn":3342,"lish":3343,"my":3344,"mes":3345,"mary":3346,"motor":3347,"normal":3348,"ochlear":3349,"pelvis":3350,"plexus":3351,"uate":3352,"vide":3353,"wa":3354,"ÃĤ":3355,"thoracic":3356,"into":3357,"Ġophthalmic":3358,"articular":3359,"aracter":3360,"Ġsul":3361,"esamoid":3362,"Ġpoint":3363,"Ġpron":3364,"rate":3365,"Ġcenter":3366,"Ġfigure":3367,"Ġbilateral":3368,"Ġme":3369,"Ġinner":3370,"icles":3371,"rotum":3372,"itate":3373,"ostic":3374,"ĠCT":3375,"Ġdesc":3376,"econd":3377,"ectile":3378,"anasal":3379,"ingle":3380,"ume":3381,"ĠLay":3382,"ĠDepartment":3383,"Ġary":3384,"diap":3385,"Ġves":3386,"Ġvul":3387,"Ġvisible":3388,"rome":3389,"unct":3390,"ibrous":3391,"uble":3392,"Ġlea":3393,"theti":3394,"Ġmaxim":3395,"ocephalic":3396,"Ġrun":3397,"andible":3398,"ĠHaider":3399,"orders":3400,"ucent":3401,"earing":3402,"udden":3403,"foramen":3404,"tachments":3405,"Ġremain":3406,"astus":3407,"Ġskull":3408,"resynaptic":3409,"Ġocclusion":3410,"palmar":3411,"erebral":3412,"Ġbox":3413,"Ġinflammation":3414,"Ġunite":3415,"Ġscapular":3416,"Ġappear":3417,"Ġreflex":3418,"external":3419,"Ġoverlying":3420,"Ġtermin":3421,"Ġulnaris":3422,"Ġprevertebral":3423,"Ġgenicular":3424,"otemporal":3425,"Ġfourth":3426,"Ġserous":3427,"Ġmuscul":3428,"gnostic":3429,"ullary":3430,"gram":3431,"iograms":3432,"Ġinfratemporal":3433,"joints":3434,"rosal":3435,"Ġjoined":3436,"Ġsevere":3437,"Left":3438,"Ġproduces":3439,"Ġcostotransverse":3440,"Ġprevent":3441,"Ġsurgical":3442,"Ġturn":3443,"Ġclinical":3444,"renic":3445,"Ġbundle":3446,"Ġprocedure":3447,"Abducts":3448,"Ġpetrosal":3449,"Ġcavernous":3450,"Ġepigastric":3451,"Ġomentum":3452,"manent":3453,"Ġsphenoid":3454,"Ġorientation":3455,"diaphragm":3456,"Ġmaximus":3457,"92":3458,"93":3459,"Branch":3460,"Med":3461,"Pi":3462,"Presynaptic":3463,"Spinal":3464,"ail":3465,"ative":3466,"ber":3467,"cons":3468,"deltoid":3469,"fid":3470,"ginal":3471,"iatus":3472,"jur":3473,"met":3474,"nod":3475,"ool":3476,"ring":3477,"sur":3478,"sph":3479,"ype":3480,"lesser":3481,"Ġsim":3482,"enet":3483,"Ġpis":3484,"radi":3485,"ĠAll":3486,"Ġcircle":3487,"Ġflat":3488,"Ġfood":3489,"Ġbiliary":3490,"icus":3491,"itary":3492,"osp":3493,"ĠCh":3494,"ĠCervical":3495,"Ġdep":3496,"ech":3497,"anastom":3498,"Ġnam":3499,"ults":3500,"rient":3501,"umor":3502,"omet":3503,"Ġwill":3504,"artments":3505,"ĠDermatom":3506,"verge":3507,"verted":3508,"Ġeas":3509,"abili":3510,"Ġvas":3511,"Ġvastus":3512,"Ġlines":3513,"ĠEd":3514,"ĠEnd":3515,"ĠSynovial":3516,"ĠSupp":3517,"ĠStructure":3518,"ĠPos":3519,"Ġspl":3520,"seg":3521,"ocket":3522,"Ġoral":3523,"Ġrise":3524,"Ġham":3525,"Ġwhile":3526,"tendon":3527,"ĠThere":3528,"ĠThoracic":3529,"orda":3530,"Ġinterphalangeal":3531,"Ġsublingual":3532,"perineum":3533,"ĠVisceral":3534,"ĠVariations":3535,"ĠRot":3536,"Ġbefore":3537,"nius":3538,"ratrochlear":3539,"Ġtravel":3540,"Ġilium":3541,"ovements":3542,"Ġtriangular":3543,"hypog":3544,"Ġtibiofibular":3545,"Ġunion":3546,"Ġdorsi":3547,"pend":3548,"obrachialis":3549,"Ġpulse":3550,"Ġscaphoid":3551,"Ġexpans":3552,"Ġrotation":3553,"Ġappend":3554,"Ġencl":3555,"Ġchin":3556,"Ġoverla":3557,"Ġscapulae":3558,"opliteus":3559,"Ġgenu":3560,"Ġhemorr":3561,"Ġtissues":3562,"osseous":3563,"Ġtalocalcane":3564,"chlea":3565,"Ġtibialis":3566,"Ġcontinuation":3567,"produc":3568,"intercostal":3569,"Ġseparates":3570,"Three":3571,"Ġcalcaneal":3572,"Ġdivided":3573,"Ġimages":3574,"Ġfractures":3575,"ormally":3576,"Arter":3577,"Arises":3578,"Ġyear":3579,"Ġsemispinalis":3580,"Ġbrachiocephalic":3581,"Ġvari":3582,"Ġpericardial":3583,"communic":3584,"Ġindicated":3585,"Figs":3586,"Ġmetacarpals":3587,"Ġcommunicates":3588,"Ġneurovascular":3589,"Ġanesthetic":3590,"Components":3591,"Ġfinger":3592,"Ġloop":3593,"Ġprovides":3594,"Ġdislocation":3595,"ĠPhD":3596,"Ġlength":3597,"Ġcaudate":3598,"General":3599,"ĠAlthough":3600,"Ġopposite":3601,"Ġdissected":3602,"Ġswallowing":3603,"ĠSchool":3604,"Ġsaliv":3605,"Ġsulcus":3606,"fidus":3607,"Ġexpansion":3608,"Functions":3609,"Middle":3610,"Per":3611,"Sensation":3612,"When":3613,"ble":3614,"bial":3615,"bone":3616,"cor":3617,"cing":3618,"frontal":3619,"ient":3620,"itions":3621,"mid":3622,"mits":3623,"over":3624,"point":3625,"sch":3626,"sep":3627,"system":3628,"vix":3629,"ypog":3630,"zes":3631,"Ġu":3632,"Ġidenti":3633,"Ġav":3634,"Ġautonomic":3635,"ales":3636,"Ġolecranon":3637,"Ġthyro":3638,"nder":3639,"Ġsn":3640,"Ġste":3641,"Ġstr":3642,"Ġsesamoid":3643,"Ġsingle":3644,"enar":3645,"tire":3646,"tiform":3647,"titu":3648,"Ġpo":3649,"Ġposs":3650,"Ġcus":3651,"Ġcha":3652,"Ġcourses":3653,"Ġbed":3654,"Ġmer":3655,"edle":3656,"eding":3657,"icardium":3658,"requ":3659,"osacral":3660,"lied":3661,"ĠTyp":3662,"Ġder":3663,"ingiv":3664,"Ġnote":3665,"Ġnormal":3666,"rium":3667,"uma":3668,"upper":3669,"ĠAnatomical":3670,"Ġtorn":3671,"Ġtentor":3672,"attachment":3673,"opulmonary":3674,"Ġrepla":3675,"direct":3676,"elli":3677,"nea":3678,"Ġnerv":3679,"cts":3680,"cting":3681,"ĠFor":3682,"ĠFloor":3683,"orsum":3684,"Ġgem":3685,"ĠSection":3686,"ĠSee":3687,"romin":3688,"ĠAttachments":3689,"lastic":3690,"ectal":3691,"ubital":3692,"ollow":3693,"Ġsplen":3694,"Ġspinae":3695,"Ġjejun":3696,"ococcy":3697,"Ġhis":3698,"Ġhiatus":3699,"Ġdistended":3700,"Ġrupture":3701,"imens":3702,"tends":3703,"ĠHip":3704,"loic":3705,"ogenital":3706,"Ġintermuscular":3707,"ysm":3708,"ĠInfra":3709,"ĠIntegrating":3710,"Ġsupports":3711,"trac":3712,"Ġsubcostal":3713,"Ġsuboccipital":3714,"Ġsubarachnoid":3715,"ĠVI":3716,"Ġcancer":3717,"Ġformation":3718,"Ġcompression":3719,"ĠOss":3720,"Ġcondition":3721,"isting":3722,"ogram":3723,"Ġtempor":3724,"Ġstretch":3725,"otibial":3726,"Ġtubes":3727,"Ġdorsif":3728,"Ġincision":3729,"Ġrelations":3730,"itoneum":3731,"inuous":3732,"Ġobliquely":3733,"posteriorly":3734,"Ġgeneral":3735,"Ġsmaller":3736,"Exit":3737,"Ġbrachialis":3738,"Ġradio":3739,"Ġmark":3740,"Ġreceive":3741,"Ġepid":3742,"ould":3743,"Ġcovered":3744,"Ġcoverings":3745,"Ġurethral":3746,"Ġesophageal":3747,"cave":3748,"Ġfatty":3749,"Ġpatellar":3750,"Ġmyoc":3751,"Ġgrac":3752,"Ġgrasp":3753,"Ġmetacarpophalangeal":3754,"Ġyears":3755,"theses":3756,"Ġseminal":3757,"compartment":3758,"Ġerectile":3759,"Ġmetatarsals":3760,"Ġinvolved":3761,"mediately":3762,"ology":3763,"Ġstylohyoid":3764,"Ġumbilicus":3765,"Ġmeninges":3766,"Ġseveral":3767,"Ġchanges":3768,"Ġlumborum":3769,"juncti":3770,"Ġabducted":3771,"Ġpalpable":3772,"ĠnasopharynxÃ¢":3773,"Ġpierces":3774,"oscope":3775,"Terminal":3776,"Termination":3777,"Ġunderlying":3778,"Ġbifurcation":3779,"Ġlamina":3780,"Ġstudy":3781,"Ġsyndrome":3782,"Ġpartially":3783,"Ġepiphyses":3784,"Ġcricoid":3785,"Ġbuccal":3786,"Ġintact":3787,"Ġmeniscus":3788,"Ġspleen":3789,"dividual":3790,"ĠMyotomes":3791,"ocolon":3792,"Ġprofundus":3793,"except":3794,"Functional":3795,"condylar":3796,"ĠParts":3797,"owledge":3798,"Ġscalene":3799,"Ġparallel":3800,"uncture":3801,"ĠDermatomes":3802,"hypogastric":3803,"ypoglossal":3804,"titute":3805,"junctiva":3806,"At":3807,"Cells":3808,"Di":3809,"Muscles":3810,"Pos":3811,"Qu":3812,"Radial":3813,"Sc":3814,"Sp":3815,"Sem":3816,"Stern":3817,"blood":3818,"bronch":3819,"cross":3820,"carpal":3821,"during":3822,"dorsal":3823,"greater":3824,"mis":3825,"muc":3826,"may":3827,"nia":3828,"other":3829,"ouble":3830,"pre":3831,"pres":3832,"rup":3833,"sc":3834,"vas":3835,"Ġ:":3836,"Ġent":3837,"Ġir":3838,"Ġabd":3839,"Ġaper":3840,"Ġaffected":3841,"ini":3842,"org":3843,"terus":3844,"less":3845,"arch":3846,"arium":3847,"Ġswelling":3848,"Ġsudden":3849,"entheses":3850,"Ġpus":3851,"Ġpur":3852,"Ġpenet":3853,"Ġpopliteus":3854,"rainage":3855,"ĠActions":3856,"Ġclavicular":3857,"used":3858,"Ġblue":3859,"Ġinlet":3860,"roximately":3861,"relation":3862,"osure":3863,"lique":3864,"ilis":3865,"ilic":3866,"ective":3867,"Ġnut":3868,"Ġnetw":3869,"Ġnumber":3870,"ulotemporal":3871,"aste":3872,"Ġtributaries":3873,"Ġwid":3874,"Ġwind":3875,"artor":3876,"ĠDe":3877,"ĠDorsal":3878,"Ġanular":3879,"Ġaneur":3880,"Ġefferent":3881,"ĠMan":3882,"ĠMuscle":3883,"ĠMost":3884,"Ġischem":3885,"ope":3886,"ĠLibr":3887,"elf":3888,"Ġsupinator":3889,"Ġvisual":3890,"ĠFoot":3891,"Ġgingiv":3892,"epatic":3893,"Ġlat":3894,"Ġlacer":3895,"Ġlatissimus":3896,"ĠSt":3897,"ĠStomach":3898,"ĠPal":3899,"uncle":3900,"unate":3901,"Ġexcessive":3902,"ocarpal":3903,"Ġmedullary":3904,"Ġproj":3905,"Ġhilum":3906,"Ġdisapp":3907,"Ġveli":3908,"Ġfibros":3909,"uck":3910,"Ġscrotum":3911,"oventricular":3912,"ĠInter":3913,"iploic":3914,"ĠNational":3915,"Ġpalato":3916,"forearm":3917,"Ġcontract":3918,"Ġparticular":3919,"Ġbeing":3920,"Ġbegin":3921,"Ġbegins":3922,"Ġconjunctiva":3923,"Ġflexors":3924,"Ġremoval":3925,"Ġtwig":3926,"Ġplaced":3927,"Ġcervix":3928,"quus":3929,"Ġstri":3930,"Ġunites":3931,"Ġdev":3932,"Ġrelatively":3933,"Ġcovers":3934,"Ġcartilaginous":3935,"lymph":3936,"Ġmetast":3937,"Ġextending":3938,"ancy":3939,"ffect":3940,"Ġposterolateral":3941,"Ġentire":3942,"Ġcharacter":3943,"Ġmesocolon":3944,"Ġbursitis":3945,"Ġdiagnostic":3946,"ucleus":3947,"illae":3948,"âĤ¬âĢ¢)":3949,"Ġsternocleidomastoid":3950,"Ġcrossing":3951,"Ġhumeral":3952,"Ġedema":3953,"ardiac":3954,"Ġventricular":3955,"Ġmusculocutaneous":3956,"Ġlocal":3957,"interosseous":3958,"Ġsupraspinatus":3959,"Ġinterossei":3960,"ligaments":3961,"Ġarticulation":3962,"Ġarticulate":3963,"Ġkidneys":3964,"This":3965,"Ġdividing":3966,"graph":3967,"grade":3968,"Ġurogenital":3969,"Ġpaired":3970,"Ġdemarc":3971,"Ġeyelids":3972,"Ġovary":3973,"Ġlargely":3974,"rectal":3975,"Ġerector":3976,"Ġhemisected":3977,"Ġchann":3978,"Ġfail":3979,"untary":3980,"ulocochlear":3981,"Ġacetabulum":3982,"otome":3983,"Ġileum":3984,"Ġcoracoid":3985,"pharyngeal":3986,"Ġossif":3987,"Ġdisplaced":3988,"Ġlentiform":3989,"Ġphrenic":3990,"Ġlaminae":3991,"ĠAxial":3992,"Ġincreased":3993,"Ġthoracolumbar":3994,"ĠProject":3995,"ĠObserve":3996,"Asce":3997,"Ġpapillary":3998,"ĠTemp":3999,"sequently":4000,"Short":4001,"Ġtensor":4002,"Ġpalpebrae":4003,"Ġknown":4004,"Ġilioinguinal":4005,"Ġvertical":4006,"Ġinferolaterally":4007,"Ġcuneiform":4008,"Ġslightly":4009,"Depresses":4010,"ways":4011,"Ġvesical":4012,"jury":4013,"Ġsimilar":4014,"Ġpisiform":4015,"Artery":4016,"Ġsnuff":4017,"Ġcusps":4018,"Ġnervous":4019,"Ġgracilis":4020,"Ġnetwork":4021,"ĠLibrary":4022,"Body":4023,"Branches":4024,"Facial":4025,"Ili":4026,"Mo":4027,"Op":4028,"Re":4029,"Rect":4030,"Synovial":4031,"Sty":4032,"Tra":4033,"cr":4034,"coron":4035,"clavian":4036,"del":4037,"duodenum":4038,"each":4039,"fess":4040,"gen":4041,"iph":4042,"iration":4043,"knee":4044,"lus":4045,"lumbar":4046,"me":4047,"nose":4048,"ohyoid":4049,"po":4050,"ption":4051,"pain":4052,"pulmonary":4053,"ront":4054,"rinc":4055,"sa":4056,"son":4057,"ug":4058,"uous":4059,"uffic":4060,"varia":4061,"yk":4062,"ylohyoid":4063,"ymis":4064,"ze":4065,"zyk":4066,"Ġz":4067,"Ġlying":4068,"Ġrid":4069,"this":4070,"thorac":4071,"Ġadd":4072,"inosus":4073,"inopelvic":4074,"Ġouter":4075,"Ġoculomotor":4076,"Ġthus":4077,"orter":4078,"onic":4079,"ndinosus":4080,"arm":4081,"arian":4082,"Ġsix":4083,"estive":4084,"til":4085,"tial":4086,"Ġpin":4087,"Ġpromin":4088,"ĠAc":4089,"Ġcy":4090,"usually":4091,"Ġful":4092,"Ġfric":4093,"Ġflav":4094,"Ġfive":4095,"Ġfull":4096,"Ġblow":4097,"lack":4098,"Ġiniti":4099,"ices":4100,"rec":4101,"ref":4102,"hepatic":4103,"ĠCon":4104,"ĠCubital":4105,"acrum":4106,"veins":4107,"rangular":4108,"illed":4109,"ecal":4110,"ants":4111,"ulses":4112,"rigeminal":4113,"ĠLans":4114,"idymis":4115,"Ġta":4116,"Ġtable":4117,"Ġtype":4118,"atini":4119,"Ġwork":4120,"ĠDuring":4121,"vert":4122,"Ġanulus":4123,"Ġele":4124,"Ġeversion":4125,"ĠMiddle":4126,"Ġrelie":4127,"division":4128,"dified":4129,"ella":4130,"elves":4131,"pped":4132,"ably":4133,"Ġgo":4134,"Ġglossopharyngeal":4135,"adduct":4136,"ĠBrachial":4137,"epend":4138,"ĠThey":4139,"ĠSc":4140,"ĠStern":4141,"ĠSeg":4142,"esser":4143,"essel":4144,"ĠPect":4145,"ibial":4146,"uboid":4147,"Ġless":4148,"ocr":4149,"vesting":4150,"tring":4151,"alls":4152,"Ġhook":4153,"Ġhold":4154,"Ġhowever":4155,"ongi":4156,"ĠUre":4157,"ĠUterus":4158,"Ġrh":4159,"Ġrings":4160,"Ġmedialis":4161,"Ġpartly":4162,"Ġintermediate":4163,"ysial":4164,"cesses":4165,"ĠregionÃ¢":4166,"ĠVal":4167,"ofemoral":4168,"ofibrous":4169,"ribriform":4170,"Ġcontains":4171,"Ġfasciae":4172,"Ġrespiratory":4173,"Ġcavities":4174,"verses":4175,"Ġmidbrain":4176,"ĠPermanent":4177,"Ġcolic":4178,"ibularis":4179,"Ġfossae":4180,"Ġglans":4181,"Ġsequ":4182,"itendinosus":4183,"Ġsuperficialis":4184,"Ġstu":4185,"ronic":4186,"spine":4187,"Ġtriad":4188,"Ġvenae":4189,"Ġincis":4190,"Ġincised":4191,"Ġincrease":4192,"Ġpulls":4193,"Ġrelax":4194,"ules":4195,"ĠthighÃ¢":4196,"Ġrotate":4197,"ucharc":4198,"ĠmaleÃ¢":4199,"luteal":4200,"sertion":4201,"Ġcho":4202,"Ġbronchopulmonary":4203,"Ġdescend":4204,"superiorly":4205,"Ġsternocostal":4206,"Ġradialis":4207,"Ġminim":4208,"ĠCoronary":4209,"Ġsituated":4210,"ĠmouthÃ¢":4211,"Exits":4212,"Ġabout":4213,"opharyngeus":4214,"icularis":4215,"Ġventricles":4216,"inferiorly":4217,"submandibular":4218,"subcutaneous":4219,"Ġanastomosis":4220,"Ġarticulations":4221,"There":4222,"issimus":4223,"Ġtubercles":4224,"Ġimmediately":4225,"Ġreferred":4226,"Ġlarger":4227,"Ġcircular":4228,"Ġbasilic":4229,"Ġrecons":4230,"these":4231,"Ġinfrahyoid":4232,"Ġmalleus":4233,"Ġoval":4234,"Ġcoccygeal":4235,"ĠKucharc":4236,"Ġinserted":4237,"Ġhorn":4238,"Ġagent":4239,"Ġrevealing":4240,"Ġsuperolateral":4241,"venous":4242,"Ġtonsillar":4243,"Ġanesthesia":4244,"ĠSuboccipital":4245,"Ġinfections":4246,"Ġretrograde":4247,"Ġlumbricals":4248,"Ġparaly":4249,"Ġdermatomes":4250,"Observe":4251,"contra":4252,"Ġcruciate":4253,"Ġtransmit":4254,"Ġturns":4255,"Ġossification":4256,"Ġpeduncle":4257,"ĠRelationships":4258,"uspensory":4259,"Ġosse":4260,"ĠDiaphragm":4261,"Ġherni":4262,"Ġmultifidus":4263,"Ġvolume":4264,"ĠParanasal":4265,"Ġmagnum":4266,"ĠUltrasound":4267,"Ġtypically":4268,"atrial":4269,"Ġperforating":4270,"ĠOrbital":4271,"Ġacromion":4272,"specimen":4273,"Ġhypoth":4274,"Ġcorresponding":4275,"Ġdescrib":4276,"ĠLayers":4277,"Ġarytenoid":4278,"Ġvulner":4279,"thetized":4280,"systemic":4281,"Ġsplenic":4282,"Ġdorsiflex":4283,"Ġmyocardium":4284,"Ġaperture":4285,"artorius":4286,"fessor":4287,"Ġfully":4288,"Ġfriction":4289,"ĠLansdown":4290,"ĠKucharczyk":4291,"AB":4292,"Abdom":4293,"Actions":4294,"Base":4295,"Hypoglossal":4296,"Lower":4297,"Pharyn":4298,"Rot":4299,"Ret":4300,"Seg":4301,"Tibial":4302,"Vertebral":4303,"affected":4304,"base":4305,"body":4306,"brachial":4307,"cent":4308,"cerebral":4309,"fem":4310,"foot":4311,"flow":4312,"iography":4313,"mosis":4314,"mandible":4315,"oves":4316,"oabdominal":4317,"panc":4318,"pubic":4319,"supra":4320,"tors":4321,"trochanter":4322,"when":4323,"wrist":4324,"yond":4325,"Â°":4326,"Ġ;":4327,"Ġrim":4328,"thyroid":4329,"Ġausc":4330,"inf":4331,"ining":4332,"Ġolfactory":4333,"orb":4334,"ortal":4335,"terion":4336,"lear":4337,"lege":4338,"level":4339,"ark":4340,"Ġshap":4341,"Ġsut":4342,"Ġsternal":4343,"Ġshaped":4344,"Ġsuspensory":4345,"Ġsartorius":4346,"eslin":4347,"esmosis":4348,"enoid":4349,"ties":4350,"Ġpuncture":4351,"rac":4352,"ĠAd":4353,"ising":4354,"Ġcre":4355,"Ġcod":4356,"Ġcell":4357,"uric":4358,"Ġfar":4359,"Ġfur":4360,"Ġfetal":4361,"Ġborders":4362,"lab":4363,"Ġmolar":4364,"Ġindividual":4365,"rot":4366,"roup":4367,"heart":4368,"ĠCor":4369,"ĠCar":4370,"ĠCross":4371,"ĠCeliac":4372,"lium":4373,"ĠTrans":4374,"ĠTex":4375,"Ġden":4376,"acarpal":4377,"acetab":4378,"ham":4379,"have":4380,"hage":4381,"Ġtooth":4382,"range":4383,"Ġnon":4384,"Ġnec":4385,"Ġnormally":4386,"Ġtrochlear":4387,"ĠWe":4388,"Ġwide":4389,"Ġwell":4390,"ĠDig":4391,"Ġanteromedial":4392,"Ġemp":4393,"Ġequ":4394,"ĠMuscular":4395,"oposterior":4396,"elt":4397,"Ġlunate":4398,"Ġga":4399,"Ġgiv":4400,"epig":4401,"epiploic":4402,"ĠSur":4403,"ĠSympathetic":4404,"Ġlimit":4405,"romb":4406,"ĠPopliteal":4407,"ubrium":4408,"olitary":4409,"etus":4410,"Ġareolar":4411,"mber":4412,"Infra":4413,"Integrating":4414,"Insertion":4415,"ocuboid":4416,"Ġmediastinal":4417,"Ġprovide":4418,"truction":4419,"Ġhence":4420,"apoph":4421,"uted":4422,"Ġwithout":4423,"oids":4424,"ĠUr":4425,"ralateral":4426,"viscer":4427,"imembran":4428,"ĠHepatic":4429,"ĠHeslin":4430,"lofemoral":4431,"ascial":4432,"ysma":4433,"Ġthroughout":4434,"ĠIJV":4435,"Ġsubacromial":4436,"ude":4437,"Ġcontribu":4438,"Ġparentheses":4439,"Ġmidpoint":4440,"Ġconcave":4441,"entery":4442,"igmoid":4443,"Ġkeep":4444,"rachnoid":4445,"resses":4446,"solated":4447,"Ġshorter":4448,"Ġcervic":4449,"Ġtear":4450,"quired":4451,"Ġoccup":4452,"ellus":4453,"space":4454,"Ġcords":4455,"Ġsepta":4456,"ographic":4457,"Ġcochlear":4458,"Ġappar":4459,"Ġappears":4460,"Ġcerebelli":4461,"Ġentering":4462,"lavius":4463,"piration":4464,"Ġlinea":4465,"Ġposteroinferior":4466,"Ġchorda":4467,"Ġorigins":4468,"Ġspecimens":4469,"Ġprep":4470,"Ġlabial":4471,"Ġlabels":4472,"terygopalatine":4473,"Ġangles":4474,"Ġangiogram":4475,"median":4476,"Ġcortex":4477,"Ġcornea":4478,"ĠRadi":4479,"Ġabnormal":4480,"arterial":4481,"Ġatrioventricular":4482,"Ġpiec":4483,"plane":4484,"Ġelong":4485,"Ġlocation":4486,"Ġmaintain":4487,"duction":4488,"proximal":4489,"Ġhalves":4490,"Ġsupraclavicular":4491,"Ġimpulses":4492,"Ġweek":4493,"Ġ199":4494,"Ġcausing":4495,"Ġbasilar":4496,"Ġinjured":4497,"gnancy":4498,"Ġyo":4499,"Ġsemitendinosus":4500,"Ġpair":4501,"Ġsphincters":4502,"append":4503,"rosis":4504,"umbilical":4505,"Ġcontrast":4506,"Ġquadrangular":4507,"Ġ2003":4508,"Ġopenings":4509,"Ġfollowed":4510,"Ġinsertion":4511,"Ġinserts":4512,"oscopy":4513,"Ġspreads":4514,"fibrous":4515,"Ġinvolving":4516,"Ġdemonstrate":4517,"ological":4518,"portal":4519,"Ġtrapezium":4520,"Ġsuperomedial":4521,"Levator":4522,"Ġproducing":4523,"Ġconveyed":4524,"Ġaccompan":4525,"where":4526,"lectively":4527,"Ġemerge":4528,"ĠIVC":4529,"Ġpalpated":4530,"Ġpierced":4531,"Ġcoracobrachialis":4532,"tuberous":4533,"Ġhemispheres":4534,"Ġallows":4535,"Ġallowing":4536,"lottic":4537,"lottis":4538,"Ġacting":4539,"Ġcalvaria":4540,"Ġenlargement":4541,"Ġperson":4542,"Ġepiphysis":4543,"Ġbuccinator":4544,"Ġintro":4545,"Ġabsent":4546,"Ġarrows":4547,"Ġperiph":4548,"Ġcontaining":4549,"Ġgenitalia":4550,"Ġmultiple":4551,"Ġvaginalis":4552,"Ġresistance":4553,"Ġmammary":4554,"Ġweighted":4555,"otograph":4556,"two":4557,"Ġpupil":4558,"Ġarcuate":4559,"Ġcontinue":4560,"Adducts":4561,"lished":4562,"mesenteric":4563,"Ġmeet":4564,"Branchial":4565,"nodes":4566,"Ġvariable":4567,"separ":4568,"Ġpoor":4569,"Ġpossible":4570,"Ġderived":4571,"Ġgemellus":4572,"ococcygeus":4573,"Ġepididymis":4574,"Ġaneurysm":4575,"Ġfibrosus":4576,"Ascends":4577,"Ġhypothenar":4578,"Ġvulnerable":4579,"Pharyngeal":4580,"Segment":4581,"Ġauscult":4582,"apophysial":4583,"imembranosus":4584,"%,":4585,".)":4586,"Acting":4587,"CM":4588,"Glute":4589,"Isch":4590,"MJ":4591,"MRI":4592,"Most":4593,"Mandibular":4594,"Oculomotor":4595,"Pal":4596,"SI":4597,"Sm":4598,"Tem":4599,"Tens":4600,"Ul":4601,"Vestib":4602,"aval":4603,"bic":4604,"bre":4605,"bones":4606,"cis":4607,"dural":4608,"eye":4609,"fe":4610,"fossa":4611,"female":4612,"gical":4613,"glossus":4614,"hing":4615,"ila":4616,"iop":4617,"ipp":4618,"ioclavicular":4619,"ioglossus":4620,"iency":4621,"mod":4622,"nowledge":4623,"nucleus":4624,"odies":4625,"phe":4626,"pudendal":4627,"rises":4628,"ritation":4629,"sk":4630,"sup":4631,"sinus":4632,"sheath":4633,"ventric":4634,"vanc":4635,"wn":4636,"Ġ[":4637,"Ġ20":4638,"erb":4639,"ery":4640,"thri":4641,"thÃ¢":4642,"Ġarachnoid":4643,"alth":4644,"Ġoth":4645,"Ġotic":4646,"Ġthereb":4647,"orig":4648,"orption":4649,"Ġsocket":4650,"enosis":4651,"Ġpy":4652,"Ġpit":4653,"Ġporta":4654,"Ġplus":4655,"ĠAs":4656,"isk":4657,"istic":4658,"Ġcec":4659,"Ġcephalic":4660,"Ġcases":4661,"Ġcribriform":4662,"Ġclear":4663,"uses":4664,"uspend":4665,"urn":4666,"Ġfe":4667,"Ġfuse":4668,"Ġfound":4669,"Ġfunctions":4670,"Ġfelt":4671,"Ġfetus":4672,"Ġbud":4673,"Ġbare":4674,"lamed":4675,"Ġmit":4676,"Ġmass":4677,"Ġmust":4678,"Ġmental":4679,"Ġmales":4680,"Ġinst":4681,"ioradial":4682,"ice":4683,"roop":4684,"itor":4685,"iting":4686,"itory":4687,"ĠCo":4688,"ĠTo":4689,"ĠTerm":4690,"ĠTongue":4691,"Ġdue":4692,"Ġdang":4693,"Ġdown":4694,"Ġduodenal":4695,"aculum":4696,"Ġtouch":4697,"echan":4698,"anal":4699,"anes":4700,"antes":4701,"Ġname":4702,"ĠLaryn":4703,"ĠLob":4704,"amp":4705,"atars":4706,"omb":4707,"Ġwing":4708,"otatic":4709,"ĠDorsum":4710,"ĠDrainage":4711,"very":4712,"Ġanomalies":4713,"Ġansa":4714,"Ġeff":4715,"Ġejac":4716,"opp":4717,"Ġ18":4718,"inser":4719,"tication":4720,"pping":4721,"abs":4722,"Ġvascular":4723,"Ġvessel":4724,"ĠFascia":4725,"ĠFront":4726,"Ġgy":4727,"Ġgastric":4728,"ades":4729,"ĠBronch":4730,"ĠBook":4731,"ĠEach":4732,"Ġlata":4733,"ĠSm":4734,"ĠSp":4735,"ĠSole":4736,"ĠSecond":4737,"ĠGra":4738,"Ġlig":4739,"ineus":4740,"romandibular":4741,"Ġarteriograms":4742,"includ":4743,"ĠPortal":4744,"otted":4745,"olis":4746,"Ġforc":4747,"ets":4748,"thelium":4749,"Ġexper":4750,"ocranium":4751,"ociliary":4752,"ocecal":4753,"Ġmedulla":4754,"oduodenal":4755,"Ġhepa":4756,"try":4757,"Ġhard":4758,"Ġperformed":4759,"Ġhair":4760,"Ġhams":4761,"tebrachial":4762,"ĠHosp":4763,"ĠThree":4764,"ĠThird":4765,"Ġcarri":4766,"ulature":4767,"oving":4768,"Ġalmost":4769,"Ġalba":4770,"ĠInf":4771,"Ġligamentum":4772,"ips":4773,"ĠIsolated":4774,"Ġsubst":4775,"pertension":4776,"ĠVestib":4777,"ĠVIII":4778,"udes":4779,"ĠRes":4780,"Ġpalatini":4781,"inai":4782,"Ġcomposed":4783,"ĠHeart":4784,"Ġresp":4785,"Ġpara":4786,"Ġbending":4787,"Ġbeyond":4788,"Ġmidclavicular":4789,"ĠOp":4790,"ĠPeritoneum":4791,"Ġprocessus":4792,"Ġremains":4793,"Ġtraverses":4794,"ressive":4795,"Ġplates":4796,"Ġaccess":4797,"Ġoccurr":4798,"Ġcervicalis":4799,"Ġusing":4800,"erebell":4801,"Ġinfants":4802,"Ġinflamed":4803,"Ġuntil":4804,"Ġdeter":4805,"umerous":4806,"Ġpulled":4807,"Ġhyoglossus":4808,"Ġcoat":4809,"Ġnode":4810,"Ġobliquus":4811,"escending":4812,"uterine":4813,"hemis":4814,"Ġclosing":4815,"Ġclosure":4816,"rimitive":4817,"inuation":4818,"Ġreturn":4819,"Ġadult":4820,"Ġadults":4821,"Ġconstitute":4822,"largement":4823,"lenoid":4824,"Ġdiagram":4825,"Ġspecial":4826,"ĠMediastinum":4827,"ractures":4828,"Ġmostly":4829,"oneurosis":4830,"Ġwhereas":4831,"Ġcorrelation":4832,"Extends":4833,"Ġeditions":4834,"ophagus":4835,"Ġatrial":4836,"lind":4837,"Ġgrooves":4838,"Ġexcep":4839,"Ġmargins":4840,"Ġsuprapatellar":4841,"Ġanastomosing":4842,"Ġdiscs":4843,"ressions":4844,"Ġbicipital":4845,"Ġviewed":4846,"velopment":4847,"Thorac":4848,"Ġindepend":4849,"ĠteethÃ¢":4850,"Ġincluded":4851,"Ġmyotome":4852,"Ġgravity":4853,"unning":4854,"Articular":4855,"plenius":4856,"Ġpati":4857,"ĠelbowÃ¢":4858,"Ġbelow":4859,"Ġinfraspinatus":4860,"humerus":4861,"Ġovale":4862,"Ġovarian":4863,"Ġischium":4864,"Ġfollows":4865,"Ġcuboid":4866,"Ġconnect":4867,"Ġconnecting":4868,"Ġdrained":4869,"llustra":4870,"Ġpresynaptic":4871,"Ġinvolves":4872,"Ġretroinguinal":4873,"times":4874,"timulation":4875,"Ġforeign":4876,"Ġauriculotemporal":4877,"Ġsecondary":4878,"Ġzygapophysial":4879,"Ġintracranial":4880,"Ġsurgically":4881,"Ġsurrounds":4882,"Ġreceived":4883,"Ġloose":4884,"Ġproviding":4885,"Ġdisplacement":4886,"Ġbifurcates":4887,"supplies":4888,"Ġradiographic":4889,"Ġstudents":4890,"cover":4891,"Ġairway":4892,"Ġsyndesmosis":4893,"Ġbundles":4894,"Ġprocedures":4895,"Ġpartial":4896,"Foramen":4897,"canal":4898,"ĠObturator":4899,"Ġpancreaticoduodenal":4900,"Ġtonsils":4901,"Ġreduc":4902,"ĠJoints":4903,"Ġcurv":4904,"Ġmanubrium":4905,"becomes":4906,"ĠCollege":4907,"ĠCompartments":4908,"Ġmagnus":4909,"ĠRegions":4910,"Ġconchae":4911,"Enters":4912,"Plantar":4913,"ĠMoore":4914,"Ġstyloid":4915,"terosuperiorly":4916,"Ġcheek":4917,"Ġtaken":4918,"ĠFlexion":4919,"Ġprotrusion":4920,"Ġhelps":4921,"Ġtracheal":4922,"Parasympathetic":4923,"Ġsphenoidal":4924,"Median":4925,"sphincter":4926,"Ġflatten":4927,"Ġnames":4928,"Ġeasily":4929,"abilizes":4930,"Ġsplit":4931,"Ġhamate":4932,"ĠRotator":4933,"Ġappendix":4934,"Ġhemorrhage":4935,"Ġstress":4936,"Ġtentorium":4937,"directly":4938,"Ġjejunum":4939,"ĠInfratemporal":4940,"ĠOssification":4941,"Ġtemporomandibular":4942,"Ġmarkings":4943,"Quad":4944,"Ġpenetrate":4945,"Ġdisappears":4946,"Ġtwigs":4947,"Ġmetastas":4948,"Ġchannels":4949,"Ġfailure":4950,"ĠTemporal":4951,"Rectus":4952,"rincip":4953,"Ġflava":4954,"Ġrelieve":4955,"adductor":4956,"ocrine":4957,"Ġparalyzed":4958,"Ġcoded":4959,"ĠTexas":4960,"Ġcervicis":4961,"Ġprepuce":4962,"Gluteus":4963,"Ġthereby":4964,"origin":4965,"Ġcecum":4966,"uspended":4967,"Ġmitral":4968,"ioradialis":4969,"Ġdanger":4970,"atarsophalangeal":4971,"ĠHospital":4972,"96":4973,"Ab":4974,"Ac":4975,"Al":4976,"Ax":4977,"Between":4978,"CA":4979,"CT":4980,"CSF":4981,"Cervical":4982,"Dr":4983,"During":4984,"Greater":4985,"HN":4986,"Jugular":4987,"Lac":4988,"Line":4989,"Lesser":4990,"Ps":4991,"SD":4992,"St":4993,"Sup":4994,"Side":4995,"Sacral":4996,"Splenius":4997,"To":4998,"Trigeminal":4999,"TMJ":5000,"au":5001,"adies":5002,"border":5003,"bony":5004,"book":5005,"bound":5006,"car":5007,"cord":5008,"costo":5009,"cinate":5010,"ded":5011,"dist":5012,"dissection":5013,"drain":5014,"distal":5015,"descends":5016,"ey":5017,"eins":5018,"ending":5019,"gon":5020,"gener":5021,"gressive":5022,"her":5023,"here":5024,"ii":5025,"join":5026,"lower":5027,"lung":5028,"men":5029,"ming":5030,"more":5031,"maxillary":5032,"ned":5033,"neck":5034,"nant":5035,"oy":5036,"oli":5037,"oers":5038,"pers":5039,"penis":5040,"stern":5041,"struct":5042,"sually":5043,"tent":5044,"tory":5045,"ux":5046,"uy":5047,"uur":5048,"ute":5049,"via":5050,"vation":5051,"wo":5052,"ying":5053,"ĠQ":5054,"ĠY":5055,"Ġi":5056,"Ġens":5057,"eration":5058,"erces":5059,"there":5060,"Ġala":5061,"inct":5062,"infor":5063,"innervation":5064,"alysis":5065,"alking":5066,"Ġol":5067,"Ġowing":5068,"oroid":5069,"arum":5070,"arectal":5071,"Ġsa":5072,"Ġsw":5073,"Ġsle":5074,"Ġsti":5075,"Ġslow":5076,"Ġsuspended":5077,"eness":5078,"enous":5079,"tiary":5080,"Ġpole":5081,"Ġpterion":5082,"raw":5083,"ramid":5084,"ĠApp":5085,"ĠAfter":5086,"ĠAutonomic":5087,"Ġcis":5088,"Ġcall":5089,"Ġcong":5090,"Ġcost":5091,"Ġceliac":5092,"tole":5093,"Ġfill":5094,"Ġfundus":5095,"Ġfrequ":5096,"Ġfused":5097,"Ġbrim":5098,"Ġbest":5099,"Ġbrid":5100,"lac":5101,"lap":5102,"Ġmuch":5103,"Ġmechan":5104,"Ġinversion":5105,"Ġinverted":5106,"edge":5107,"iculate":5108,"rop":5109,"roph":5110,"reen":5111,"retom":5112,"reated":5113,"ĠCardiac":5114,"liment":5115,"ĠTend":5116,"Ġdome":5117,"acaval":5118,"has":5119,"Ġtom":5120,"rangement":5121,"Ġnumbers":5122,"Ġnavicular":5123,"uld":5124,"rip":5125,"asilar":5126,"umatic":5127,"lysis":5128,"ĠLet":5129,"ĠLung":5130,"ĠAnat":5131,"ĠAnkle":5132,"ĠAnomalies":5133,"Ġten":5134,"Ġtumor":5135,"ĠWalls":5136,"atal":5137,"ators":5138,"oma":5139,"omed":5140,"oming":5141,"ĠDi":5142,"ĠDura":5143,"ĠDistal":5144,"ĠDistribution":5145,"ĠDopp":5146,"Ġanc":5147,"Ġanomal":5148,"Ġeven":5149,"Ġelevates":5150,"ches":5151,"chond":5152,"chuur":5153,"opening":5154,"Ġreview":5155,"Ġrepres":5156,"ĠLiver":5157,"tical":5158,"Ġventral":5159,"ĠFib":5160,"Ġlord":5161,"Ġgap":5162,"adjacent":5163,"ĠBost":5164,"ĠBase":5165,"arytenoid":5166,"ĠSem":5167,"ĠGe":5168,"ĠGroup":5169,"ĠArticula":5170,"Ġlid":5171,"Ġarteri":5172,"ĠPre":5173,"ĠPalatine":5174,"ĠPrimary":5175,"ĠPulmonary":5176,"ectum":5177,"olic":5178,"olars":5179,"Ġforce":5180,"Ġforced":5181,"Ġspondy":5182,"sever":5183,"Ġlet":5184,"Ġlead":5185,"Ġleads":5186,"their":5187,"Ġexer":5188,"Ġjaw":5189,"Inf":5190,"Ġmake":5191,"ocation":5192,"ocons":5193,"Ġmedium":5194,"Ġmedius":5195,"ode":5196,"Ġprojects":5197,"Ġsuperioris":5198,"ither":5199,"trum":5200,"allow":5201,"allux":5202,"Ġdisarticula":5203,"Ġoris":5204,"ongy":5205,"Ġdilat":5206,"Ġdilated":5207,"bducent":5208,"Ġrare":5209,"Ġrunning":5210,"Ġperform":5211,"erschuur":5212,"Ġcare":5213,"ulae":5214,"ulatory":5215,"Ġscler":5216,"Ġinterdig":5217,"Ġintercondylar":5218,"Ġaltern":5219,"agus":5220,"aged":5221,"Ġligamenta":5222,"ĠIllustra":5223,"ĠVessels":5224,"ĠVeins":5225,"ĠVerschuur":5226,"ĠNumbers":5227,"ĠNasal":5228,"udents":5229,"ĠRec":5230,"ĠRib":5231,"ĠRoot":5232,"ĠRectum":5233,"Ġtil":5234,"Ġcanine":5235,"Ġcomputed":5236,"Ġcomprises":5237,"Ġcontro":5238,"Ġcontribut":5239,"Ġcontralateral":5240,"laterally":5241,"Ġrests":5242,"ortacaval":5243,"Ġobser":5244,"ĠOcc":5245,"ĠOrient":5246,"Ġcollic":5247,"Ġcollectively":5248,"Ġtrauma":5249,"Ġactions":5250,"Ġshould":5251,"ĠsacÃ¢":5252,"Ġselected":5253,"Ġteach":5254,"Ġattaching":5255,"ques":5256,"quet":5257,"Ġdrawing":5258,"Ġstap":5259,"Ġstenosis":5260,"narrow":5261,"ĠlimbÃ¢":5262,"Ġaxial":5263,"triction":5264,"Ġseptal":5265,"omplete":5266,"Ġinfected":5267,"obronch":5268,"Ġpulpos":5269,"Ġbrachioradialis":5270,"Anatomy":5271,"usculocutaneous":5272,"Ġiliacus":5273,"Ġcould":5274,"Ġ);":5275,"ization":5276,"ragment":5277,"Ġpectinate":5278,"Ġretinal":5279,"ĠarmÃ¢":5280,"Ġureters":5281,"Ġorbicularis":5282,"Ġconsider":5283,"capsule":5284,"Ġmesentery":5285,"Ġoriginal":5286,"Ġinjecting":5287,"ĠMediastinal":5288,"Ġpregnancy":5289,"Ġtalofibular":5290,"ircular":5291,"reased":5292,"ĠlegÃ¢":5293,"Ġsternohyoid":5294,"Ġcorpus":5295,"ethod":5296,"Ġedge":5297,"Ġaponeurotic":5298,"luded":5299,"Ġatria":5300,"Ġexcision":5301,"placement":5302,"processes":5303,"Ġradiate":5304,"intervertebral":5305,"interventricular":5306,"partial":5307,"poses":5308,"posed":5309,"position":5310,"Ġsuprascapular":5311,"Ġsupraorbital":5312,"Ġneedle":5313,"Ġdivisions":5314,"Ġpatellofemoral":5315,"ĠearÃ¢":5316,"Ġinjuries":5317,"Ġurine":5318,"thesis":5319,"pectively":5320,"Ġsacrotuberous":5321,"Ġdevelops":5322,"ĠkidneyÃ¢":5323,"appear":5324,"approximately":5325,"rosc":5326,"pezius":5327,"Ġadducts":5328,"Ġtesticular":5329,"Ġindicates":5330,"Ġcoccygeus":5331,"testines":5332,"Ġinserting":5333,"Ġthickening":5334,"Ġthickened":5335,"Ġdistinct":5336,"Ġconnects":5337,"Ġthinner":5338,"Ġcentrally":5339,"Ġtuberosities":5340,"fibula":5341,"Ġjoining":5342,"Ġdemonstrated":5343,"pora":5344,"poromandibular":5345,"Ġproduced":5346,"Ġretroperitoneal":5347,"Compresses":5348,"vernous":5349,"Ġlumbosacral":5350,"layer":5351,"Ġepithelium":5352,"Obturator":5353,"Ġabductor":5354,"Ġcrus":5355,"Ġcostovertebral":5356,"Ġprevents":5357,"pharyngeus":5358,"tuberance":5359,"Ġpedis":5360,"hoids":5361,"supply":5362,"Ġenlarged":5363,"uspid":5364,"Ġexample":5365,"Ġexamination":5366,"Ġpersist":5367,"Ġaccompanying":5368,"major":5369,"Ġcavernosa":5370,"Ġblend":5371,"Ġatlantoaxial":5372,"Ġhigher":5373,"Ġcurves":5374,"Ġdepressed":5375,"Ġpathway":5376,"Intermediate":5377,"Ġpalpebral":5378,"audate":5379,"Ġfixes":5380,"ĠModified":5381,"Ġreflections":5382,"Continuation":5383,"ganglion":5384,"vaginal":5385,"artilages":5386,"Ġelevate":5387,"Head":5388,"larynx":5389,"laryngeal":5390,"Ġbilaterally":5391,"Ġinnermost":5392,"Ġterminates":5393,"Ġturned":5394,"Piriformis":5395,"Pierces":5396,"ĠEndocrine":5397,"Ġtalocalcanean":5398,"Ġavoid":5399,"Ġsteadies":5400,"Ġchamber":5401,"Ġmerge":5402,"ĠTypical":5403,"ollowing":5404,"trachea":5405,"Sciatic":5406,"Spinous":5407,"Sternocleidomastoid":5408,"Ġentran":5409,"Ġabduction":5410,"Ġnutrient":5411,"Ġgingivae":5412,"Ġparticularly":5413,"Ġstriated":5414,"Ġdeviation":5415,"Mount":5416,"Optic":5417,"Styl":5418,"general":5419,"Ġridge":5420,"Ġpinch":5421,"Ġcycle":5422,"ĠConsequently":5423,"Ġtaut":5424,"divisions":5425,"ĠSegmental":5426,"ĠPectoralis":5427,"Ġreconstruction":5428,"Ġosseofibrous":5429,"Ġdescribed":5430,"Abdominal":5431,"Rotates":5432,"Ġfurther":5433,"acetabulum":5434,"epiglottic":5435,"Ġyoung":5436,"Ġaccompanied":5437,"Ġauscultation":5438,"SIS":5439,"Ulnar":5440,"iopubic":5441,"modate":5442,"Ġothers":5443,"Ġinstability":5444,"Ġgyri":5445,"ĠSmith":5446,"Ġhepatis":5447,"ipsilateral":5448,"ĠRespiratory":5449,"oerster":5450,"Ġstill":5451,"Ġcallosum":5452,"retomotor":5453,"limentary":5454,"ĠDoppler":5455,"ĠBoston":5456,"ĠOriented":5457,"obronchial":5458,"Ġpulposus":5459,"%.":5460,"%);":5461,"Abducent":5462,"Cutaneous":5463,"Courses":5464,"Each":5465,"Female":5466,"Frontal":5467,"Fibularis":5468,"Glossopharyngeal":5469,"Hel":5470,"Im":5471,"Lumbar":5472,"Lymph":5473,"Man":5474,"Muscular":5475,"No":5476,"Neck":5477,"Or":5478,"Opp":5479,"Ophthalmic":5480,"Pat":5481,"Pass":5482,"Ser":5483,"Sec":5484,"Sever":5485,"Solitary":5486,"Transvers":5487,"Taste":5488,"VC":5489,"We":5490,"With":5491,"Weak":5492,"aorta":5493,"bur":5494,"bit":5495,"bel":5496,"been":5497,"brach":5498,"because":5499,"bifurc":5500,"bably":5501,"calcane":5502,"cised":5503,"dors":5504,"deg":5505,"duodenal":5506,"equ":5507,"fac":5508,"function":5509,"flexes":5510,"facial":5511,"gor":5512,"glossal":5513,"great":5514,"gallbladder":5515,"giography":5516,"gmen":5517,"hor":5518,"iel":5519,"ioc":5520,"ifor":5521,"ique":5522,"jus":5523,"ko":5524,"lor":5525,"lop":5526,"lolis":5527,"mens":5528,"movements":5529,"nas":5530,"olated":5531,"otendinous":5532,"oice":5533,"pur":5534,"pul":5535,"put":5536,"pron":5537,"rh":5538,"rich":5539,"rically":5540,"sm":5541,"sy":5542,"ste":5543,"sem":5544,"synovial":5545,"sensory":5546,"trans":5547,"transvers":5548,"tysma":5549,"vil":5550,"vascular":5551,"xation":5552,"yph":5553,"ymus":5554,"ymm":5555,"Ġ]":5556,"Ġrough":5557,"Ġrange":5558,"erally":5559,"ths":5560,"Ġaff":5561,"initis":5562,"alam":5563,"along":5564,"also":5565,"altim":5566,"align":5567,"alifor":5568,"Ġoper":5569,"Ġown":5570,"Ġthromb":5571,"Ġthalam":5572,"Ġthems":5573,"orect":5574,"only":5575,"onads":5576,"tered":5577,"teroposterior":5578,"leted":5579,"arret":5580,"arily":5581,"arthri":5582,"Ġshe":5583,"Ġsha":5584,"Ġsuc":5585,"Ġstem":5586,"Ġsural":5587,"Ġsust":5588,"Ġslid":5589,"Ġsella":5590,"ength":5591,"tig":5592,"tidis":5593,"Ġprimitive":5594,"ĠAF":5595,"ĠAÃ¢":5596,"ĠAzygos":5597,"Ġchapter":5598,"Ġcres":5599,"Ġcase":5600,"Ġcleft":5601,"Ġcusp":5602,"uset":5603,"topectoral":5604,"tock":5605,"urb":5606,"Ġfew":5607,"Ġfusion":5608,"Ġbr":5609,"Ġmon":5610,"Ġmic":5611,"Ġmat":5612,"Ġmod":5613,"Ġmons":5614,"Ġinvesting":5615,"rela":5616,"itus":5617,"ited":5618,"entaculum":5619,"osition":5620,"ostomy":5621,"ĠCa":5622,"ĠCÃ¢":5623,"ĠCaudate":5624,"ĠCalifor":5625,"ĠTM":5626,"ĠTwo":5627,"ache":5628,"active":5629,"accomp":5630,"ranula":5631,"ils":5632,"Ġnew":5633,"ulting":5634,"ulty":5635,"aster":5636,"ump":5637,"umors":5638,"upt":5639,"ĠLang":5640,"ĠLeg":5641,"ĠAnastom":5642,"amond":5643,"amage":5644,"Ġtro":5645,"Ġtree":5646,"ĠWith":5647,"ĠWest":5648,"atlas":5649,"atures":5650,"ommunic":5651,"omental":5652,"Ġway":5653,"Ġwider":5654,"Ġwounds":5655,"Ġwalking":5656,"Ġwedge":5657,"ottom":5658,"ĠDesc":5659,"verse":5660,"Ġanother":5661,"Ġet":5662,"Ġemin":5663,"Ġeither":5664,"ĠMac":5665,"Ġisolated":5666,"opic":5667,"Ġrequired":5668,"Ġreinfor":5669,"Ġ15":5670,"died":5671,"eling":5672,"elbow":5673,"neur":5674,"needle":5675,"ctation":5676,"Ġvoice":5677,"ĠFrom":5678,"ĠFoerster":5679,"Ġlod":5680,"Ġlined":5681,"Ġground":5682,"Ġgrow":5683,"Ġgranula":5684,"addle":5685,"ĠBob":5686,"ĠBrain":5687,"ĠEn":5688,"ĠEs":5689,"eph":5690,"Ġlater":5691,"Ġlatex":5692,"ĠSup":5693,"ĠSections":5694,"ĠSacrum":5695,"ĠSCM":5696,"ĠGallbladder":5697,"ĠGarret":5698,"ĠPle":5699,"unar":5700,"unted":5701,"ibly":5702,"ions":5703,"ionally":5704,"Ġspan":5705,"Ġspines":5706,"Ġspeak":5707,"geons":5708,"seal":5709,"they":5710,"theter":5711,"Ġexternus":5712,"Ġmajus":5713,"ocardial":5714,"Ġmedical":5715,"Ġprop":5716,"Ġprot":5717,"Ġheel":5718,"Ġhealth":5719,"Ġhumor":5720,"utes":5721,"Ġdifferent":5722,"Ġdiame":5723,"Ġdiverge":5724,"achuset":5725,"Ġcomm":5726,"Ġbranching":5727,"Ġpermits":5728,"Ġhad":5729,"erex":5730,"ĠHowever":5731,"lolysis":5732,"Ġcatheter":5733,"vertebrae":5734,"Ġ30":5735,"ogen":5736,"umbricals":5737,"ymptom":5738,"Ġinteratrial":5739,"ysical":5740,"Ġalthough":5741,"Ġalways":5742,"agn":5743,"ĠIns":5744,"onsible":5745,"Ġdeeper":5746,"ĠInd":5747,"illaries":5748,"Ġrad":5749,"Ġraised":5750,"Ġraises":5751,"Ġraphe":5752,"Ġsubperitoneal":5753,"Ġsubtendinous":5754,"perineal":5755,"pericardium":5756,"ĠVenous":5757,"ĠRob":5758,"ĠRenal":5759,"ofascial":5760,"Ġtime":5761,"Ġpassed":5762,"stylohyoid":5763,"Ġrod":5764,"Ġrow":5765,"Ġcomponents":5766,"Ġrest":5767,"Ġparath":5768,"orted":5769,"Ġdigiti":5770,"Ġdigestive":5771,"Ġcavae":5772,"nific":5773,"Ġobject":5774,"Ġobtain":5775,"Ġobjects":5776,"Ġobstruct":5777,"ĠOther":5778,"Ġconjoint":5779,"Ġconverge":5780,"Ġtender":5781,"Ġlonger":5782,"Ġremnant":5783,"undum":5784,"Ġtrabec":5785,"Ġtraumatic":5786,"useful":5787,"Ġplacement":5788,"Ġplatysma":5789,"ferred":5790,"Ġfacil":5791,"Ġack":5792,"Ġsharp":5793,"Ġshunted":5794,"Ġiliotibial":5795,"Ġsee":5796,"Ġtegmen":5797,"Ġexternally":5798,"ovea":5799,"ovement":5800,"results":5801,"resulting":5802,"Ġstability":5803,"palatine":5804,"spiration":5805,"formation":5806,"tricle":5807,"Ġbook":5808,"Ġcapitate":5809,"Ġbecoming":5810,"obile":5811,"oblique":5812,"Ġpull":5813,"Ġpulp":5814,"Ġopens":5815,"Ġexpand":5816,"Ġexplan":5817,"Ġexposing":5818,"ifid":5819,"Ġhypertension":5820,"arsomet":5821,"Ġcochlea":5822,"Ġlaryng":5823,"Ġrotated":5824,"Ġrotators":5825,"Ġsensitive":5826,"raglenoid":5827,"Ġclosed":5828,"Ġnasociliary":5829,"Ġpectineus":5830,"Ġretromandibular":5831,"exp":5832,"extension":5833,"extensor":5834,"Ġadvanc":5835,"Ġintercostals":5836,"Ġenc":5837,"Ġconsisting":5838,"lenohumeral":5839,"Ġsubclavius":5840,"Ġmoves":5841,"Ġspecific":5842,"Ġbreak":5843,"Ġextensive":5844,"Ġlabrum":5845,"Åĵs":5846,"Ġtali":5847,"Ġtalonavicular":5848,"Ġsternothyroid":5849,"lans":5850,"langiography":5851,"Ġcrossed":5852,"rista":5853,"Ġpublished":5854,"Ġpainful":5855,"Ġminimus":5856,"Ġshows":5857,"Ġendopelvic":5858,"Ġplantarflex":5859,"Ġseries":5860,"Ġdorsalis":5861,"idneys":5862,"Ġradiocarpal":5863,"posteroinferior":5864,"derived":5865,"subclavian":5866,"Ġimpact":5867,"Ġimpressions":5868,"Ġarticulated":5869,"ission":5870,"Ġneural":5871,"Ġcalcaneocuboid":5872,"cavernous":5873,"Ġimage":5874,"Ġfractured":5875,"Ġearly":5876,"scapularis":5877,"alping":5878,"Ġbased":5879,"ĠLymph":5880,"minor":5881,"minish":5882,"removal":5883,"Ġgrad":5884,"unnels":5885,"egins":5886,"Ġsemimembranosus":5887,"retro":5888,"retory":5889,"Ġsecretory":5890,"Ġsometimes":5891,"Ġlack":5892,"complete":5893,"ĠCNS":5894,"Ġvestibulocochlear":5895,"Ġischiopubic":5896,"Professor":5897,"ĠKL":5898,"medially":5899,"Ġconnective":5900,"Ġdraining":5901,"Ġoutlet":5902,"Ġpresence":5903,"pectoralis":5904,"Ġcommunicate":5905,"Ġcommunicating":5906,"trictor":5907,"Ġneurons":5908,"portion":5909,"strum":5910,"Ġretracts":5911,"Ġsevered":5912,"closes":5913,"Ġmaterial":5914,"Level":5915,"deferens":5916,"Ġanesthetized":5917,"ĠSubdivisions":5918,"ĠRelations":5919,"Ġtransversalis":5920,"Ġskeletal":5921,"Oblique":5922,"conn":5923,"continuous":5924,"Ġcrural":5925,"Ġprevious":5926,"Ġpierce":5927,"Ġileal":5928,"Ġbands":5929,"pharynx":5930,"tubercular":5931,"Ġmastication":5932,"Ġdislocated":5933,"Ġclinically":5934,"parts":5935,"Ġfascic":5936,"regions":5937,"ocalcanean":5938,"colic":5939,"collateral":5940,"lottidis":5941,"supplied":5942,"Ġcalices":5943,"Ġgastro":5944,"Ġrounded":5945,"Ġsupporting":5946,"Ġincreases":5947,"Ġincreasing":5948,"Foramina":5949,"Ġosti":5950,"Ġthoracis":5951,"Ġpetrous":5952,"Ġcricothyroid":5953,"ĠDiagram":5954,"ophthalm":5955,"Ġcompletely":5956,"Ġepiglottis":5957,"Ġomenta":5958,"Ġmenisci":5959,"Ġsplenius":5960,"fficult":5961,"articulation":5962,"ĠTemporomandibular":5963,"Ġvoluntary":5964,"disloc":5965,"mouth":5966,"entorial":5967,"Ġiliohypogastric":5968,"Ġdefect":5969,"Encloses":5970,"Plate":5971,"Ġvertically":5972,"Ġfixed":5973,"Ġdamage":5974,"Ġdamaged":5975,"Ġperforation":5976,"Ġstylopharyngeus":5977,"Midline":5978,"circumflex":5979,"ganglia":5980,"artilaginous":5981,"Ġlesions":5982,"Ġprotrudes":5983,"Ġtracheobronchial":5984,"Ġpronation":5985,"Ġpronator":5986,"Ġleave":5987,"Ġremainder":5988,"Ġmusculofascial":5989,"Ġpreventing":5990,"surgical":5991,"ospongi":5992,"ĠChar":5993,"echko":5994,"anastomosis":5995,"Ġnamed":5996,"Ġeasy":5997,"Ġvasa":5998,"ĠPostsynaptic":5999,"Ġsplits":6000,"segments":6001,"ĠRotation":6002,"Ġenclosed":6003,"Ġoverlap":6004,"Ġhemorrhoids":6005,"Ġtalocalcaneal":6006,"producing":6007,"Ġsalivary":6008,"Ġsalivatory":6009,"Perfor":6010,"Ġidentif":6011,"Ġidentified":6012,"Ġthyrohyoid":6013,"ĠTypically":6014,"Ġreplaced":6015,"trache":6016,"Postsynaptic":6017,"Semispinalis":6018,"bronchus":6019,"mucous":6020,"rupt":6021,"organ":6022,"Ġischemic":6023,"Ġischemia":6024,"elfth":6025,"Ġlatter":6026,"Ġlatae":6027,"ĠPalmar":6028,"Ġprojection":6029,"Ġprojections":6030,"Ġcharacterized":6031,"Ġossify":6032,"coronary":6033,"pouch":6034,"ufficient":6035,"Ġzone":6036,"thoracolumbar":6037,"Ġadduction":6038,"reflected":6039,"Ġtables":6040,"Ġelect":6041,"Ġstudies":6042,"Ġcholangiography":6043,"Ġhernias":6044,"femur":6045,"pancreas":6046,"torsion":6047,"Ġrima":6048,"Ġshape":6049,"uricle":6050,"Ġgaze":6051,"Ġgiving":6052,"Ġcontribute":6053,"Ġapparatus":6054,"Ġpiece":6055,"Ġelongated":6056,"Ġ1999":6057,"Ġpairs":6058,"Ġperipheral":6059,"Temp":6060,"Vestibular":6061,"skele":6062,"Ġpyramid":6063,"rooping":6064,"ĠLaryng":6065,"Ġejaculatory":6066,"including":6067,"Ġforceps":6068,"Ġcarries":6069,"Ġsubstance":6070,"erebellum":6071,"hemisph":6072,"Ġreduced":6073,"Ġcurvature":6074,"rincipal":6075,"Axillary":6076,"Ġcistern":6077,"Ġcostarum":6078,"Ġtomographic":6079,"ĠLetters":6080,"chondral":6081,"Ġrepresent":6082,"ĠFibers":6083,"Ġlordosis":6084,"ĠArticulated":6085,"Ġdisarticulated":6086,"Ġsclera":6087,"ĠIllustration":6088,"Ġcontrol":6089,"Ġentrance":6090,"Secretomotor":6091,"lolisthesis":6092,"nasopharynx":6093,"ville":6094,"yphosis":6095,"ymmet":6096,"altimore":6097,"Ġthalamus":6098,"Ġthemselves":6099,"orectalis":6100,"Ġsustentaculum":6101,"ĠCalifornia":6102,"ĠAnastomoses":6103,"ommunications":6104,"Ġgranulations":6105,"ĠBobechko":6106,"ĠGarrett":6107,"achusetts":6108,"Ġparathyroid":6109,"Ġexplanation":6110,"arsometatarsal":6111,"ospongiosus":6112,"94":6113,"95":6114,"App":6115,"Action":6116,"All":6117,"Bases":6118,"Begins":6119,"Cerebral":6120,"De":6121,"Dist":6122,"Dissection":6123,"Elev":6124,"Emer":6125,"From":6126,"First":6127,"If":6128,"Lies":6129,"Loss":6130,"Male":6131,"Maxillary":6132,"Movements":6133,"Mylohyoid":6134,"Musculocutaneous":6135,"Occ":6136,"Olfactory":6137,"PV":6138,"Ph":6139,"Pron":6140,"Run":6141,"Structures":6142,"Sympathetic":6143,"Some":6144,"Schematic":6145,"Supp":6146,"See":6147,"Trochlear":6148,"Upper":6149,"Zyg":6150,"av":6151,"aortic":6152,"aired":6153,"autonomic":6154,"bs":6155,"but":6156,"bined":6157,"bodies":6158,"corac":6159,"cause":6160,"cious":6161,"culi":6162,"dem":6163,"double":6164,"descending":6165,"ely":6166,"ends":6167,"eeth":6168,"eeg":6169,"fing":6170,"fat":6171,"floor":6172,"fusion":6173,"fused":6174,"gro":6175,"gluteal":6176,"glenohumeral":6177,"hn":6178,"hood":6179,"hipp":6180,"iter":6181,"kes":6182,"mine":6183,"matic":6184,"magn":6185,"nasal":6186,"niation":6187,"number":6188,"outh":6189,"oile":6190,"olecranon":6191,"pad":6192,"pet":6193,"power":6194,"popliteal":6195,"path":6196,"pterygopalatine":6197,"rust":6198,"rritation":6199,"sympathetic":6200,"somatic":6201,"stomach":6202,"sacrum":6203,"sigmoid":6204,"tle":6205,"tab":6206,"tub":6207,"tarsal":6208,"tains":6209,"ua":6210,"ution":6211,"ugh":6212,"uable":6213,"unds":6214,"vular":6215,"vities":6216,"war":6217,"wise":6218,"xa":6219,"xyg":6220,"zen":6221,"Â½":6222,"Ġver":6223,"ĠĠĊ":6224,"Ġipsilateral":6225,"then":6226,"thra":6227,"than":6228,"thumb":6229,"thorax":6230,"Ġamp":6231,"Ġaque":6232,"ink":6233,"intra":6234,"intestine":6235,"inorr":6236,"alance":6237,"alized":6238,"Ġoro":6239,"Ġoculi":6240,"Ġthough":6241,"Ġthymus":6242,"orth":6243,"orge":6244,"orenal":6245,"onent":6246,"onse":6247,"letes":6248,"arly":6249,"arge":6250,"arctation":6251,"Ġsinu":6252,"Ġsimp":6253,"Ġstim":6254,"Ġsug":6255,"Ġsymptom":6256,"especially":6257,"esthesia":6258,"ento":6259,"entis":6260,"enlargement":6261,"tio":6262,"tit":6263,"titis":6264,"Ġpower":6265,"Ġpages":6266,"Ġprac":6267,"rasion":6268,"ĠAV":6269,"ĠAm":6270,"ism":6271,"Ġcla":6272,"Ġcli":6273,"Ġcing":6274,"Ġcada":6275,"Ġchy":6276,"Ġcalc":6277,"Ġcrem":6278,"Ġcrease":6279,"tosis":6280,"urv":6281,"Ġfal":6282,"Ġfro":6283,"Ġfre":6284,"Ġfan":6285,"Ġfeat":6286,"Ġfind":6287,"Ġfragment":6288,"Ġbis":6289,"Ġbearing":6290,"lates":6291,"laps":6292,"Ġmoving":6293,"Ġmolars":6294,"Ġmethod":6295,"Ġinad":6296,"Ġinspiration":6297,"Ġinformation":6298,"Ġinstrum":6299,"edic":6300,"edded":6301,"icose":6302,"icircular":6303,"roach":6304,"roke":6305,"ittle":6306,"entry":6307,"oste":6308,"ĠCr":6309,"ĠCourse":6310,"ĠCartilages":6311,"ĠCerebellum":6312,"ĠCommunications":6313,"liver":6314,"light":6315,"ĠTop":6316,"ĠTympanic":6317,"Ġdri":6318,"Ġdet":6319,"Ġdotted":6320,"acro":6321,"hand":6322,"ilical":6323,"ilunar":6324,"anel":6325,"ankle":6326,"Ġnumerous":6327,"temp":6328,"tempor":6329,"uls":6330,"rioc":6331,"asternal":6332,"asce":6333,"asionally":6334,"ĠLee":6335,"ĠAnterolateral":6336,"amous":6337,"ample":6338,"Ġtric":6339,"Ġtreatment":6340,"Ġtech":6341,"Ġtumors":6342,"Ġtunnels":6343,"ĠWh":6344,"attemp":6345,"omolog":6346,"ommodate":6347,"Ġwould":6348,"arting":6349,"otal":6350,"ĠDentis":6351,"Ġany":6352,"Ġanteroinferior":6353,"Ġantebrachial":6354,"Ġelastic":6355,"Ġevery":6356,"ĠMR":6357,"ĠMaxillary":6358,"chi":6359,"opa":6360,"optic":6361,"ophy":6362,"opposed":6363,"Ġrepe":6364,"Ġ14":6365,"dire":6366,"dimens":6367,"elrich":6368,"new":6369,"neal":6370,"neum":6371,"nexa":6372,"ontally":6373,"ontanel":6374,"above":6375,"Ġvis":6376,"Ġvary":6377,"ĠFe":6378,"ĠFirst":6379,"ĠFemoral":6380,"ĠFibrous":6381,"ĠFollowing":6382,"Ġlow":6383,"Ġlost":6384,"Ġlining":6385,"atoma":6386,"Ġglottidis":6387,"adth":6388,"ĠBy":6389,"ĠBile":6390,"ĠBoth":6391,"ĠBrainstem":6392,"ĠBaltimore":6393,"ĠBoile":6394,"epid":6395,"epicondy":6396,"epiph":6397,"ables":6398,"ĠSph":6399,"ĠScap":6400,"ĠSchem":6401,"ĠSple":6402,"ĠSacral":6403,"ĠSci":6404,"ĠSigmoid":6405,"ĠSinai":6406,"emer":6407,"ĠGen":6408,"ĠGluteal":6409,"Ġlips":6410,"Ġlimits":6411,"increased":6412,"essary":6413,"essential":6414,"iations":6415,"ĠPanc":6416,"ĠPortacaval":6417,"unae":6418,"iber":6419,"ibility":6420,"ional":6421,"olina":6422,"ollen":6423,"Ġforces":6424,"etatarsophalangeal":6425,"Ġspas":6426,"Ġspongy":6427,"selected":6428,"Ġext":6429,"Ġexcess":6430,"Ġextrinsic":6431,"mbilical":6432,"Intrinsic":6433,"Injury":6434,"ocam":6435,"Ġmedia":6436,"vesical":6437,"vestib":6438,"Ġprogressive":6439,"Ġprotuberance":6440,"Ġprobably":6441,"trude":6442,"Ġlateralis":6443,"aper":6444,"aponeurosis":6445,"irm":6446,"talar":6447,"Ġdip":6448,"Ġdiminish":6449,"ĠUS":6450,"ĠUn":6451,"Ġcomes":6452,"Ġrisk":6453,"Ġrupt":6454,"oneus":6455,"Ġ50":6456,"Ġ23":6457,"Ġperian":6458,"Ġpermanent":6459,"phia":6460,"ĠHence":6461,"lobe":6462,"ording":6463,"Ġfiber":6464,"uctions":6465,"uctive":6466,"ours":6467,"ourth":6468,"ogical":6469,"ulated":6470,"umbosacral":6471,"Ġinterp":6472,"Ġinterest":6473,"Ġintercarpal":6474,"Ġintertubercular":6475,"ysteros":6476,"agon":6477,"aginal":6478,"ĠIntestines":6479,"onsillar":6480,"ipito":6481,"ĠIle":6482,"Ġrather":6483,"Ġsubmental":6484,"Ġsubdeltoid":6485,"eared":6486,"earch":6487,"permatic":6488,"ĠVerteb":6489,"ĠVisual":6490,"ĠVagus":6491,"ĠNew":6492,"ĠNormal":6493,"ĠNode":6494,"ĠRet":6495,"fort":6496,"Ġtight":6497,"Ġtips":6498,"static":6499,"stretch":6500,"students":6501,"tached":6502,"Ġcompleted":6503,"Ġrestric":6504,"Ġrespiration":6505,"Ġrespectively":6506,"ĠAbdominopelvic":6507,"ortuous":6508,"versed":6509,"Ġsectional":6510,"ĠOmental":6511,"ĠOrigin":6512,"ĠOculomotor":6513,"Ġconduct":6514,"Ġconsequ":6515,"Ġcolle":6516,"Ġlongissimus":6517,"ained":6518,"astrocnemius":6519,"Ġtraverse":6520,"Ġplace":6521,"ferences":6522,"Ġactive":6523,"Ġacute":6524,"Ġshunt":6525,"Ġshallow":6526,"ĠfossaÃ¢":6527,"Ġiliop":6528,"Ġsends":6529,"Ġtears":6530,"Ġtearing":6531,"quamous":6532,"resist":6533,"iscera":6534,"Ġstabilizes":6535,"Ġmembranes":6536,"onduction":6537,"ellow":6538,"spaces":6539,"Ġtrig":6540,"Ġrecta":6541,"Ġaxio":6542,"Ġabdominopelvic":6543,"Ġtibi":6544,"luxation":6545,"Ġuncinate":6546,"Ġunique":6547,"Ġunopposed":6548,"Ġcanals":6549,"Ġincomplete":6550,"Ġdefic":6551,"Ġdegener":6552,"occurs":6553,"Anne":6554,"Ġexpiration":6555,"Ġrotating":6556,"Ġrotundum":6557,"Ġporto":6558,"erman":6559,"Ġsensations":6560,"izontally":6561,"ĠJo":6562,"Ġcerebro":6563,"Ġcloses":6564,"itoneal":6565,"Ġsystems":6566,"Ġnasopalatine":6567,"extends":6568,"Ġadnexa":6569,"Ġarms":6570,"Ġenough":6571,"Ġenema":6572,"Ġchronic":6573,"Ġchoroid":6574,"ĠcompartmentÃ¢":6575,"caps":6576,"Ġmesentry":6577,"Ġtertiary":6578,"Ġinjection":6579,"Ġbreadth":6580,"Ġpreferred":6581,"Ġbronchial":6582,"Ġgenito":6583,"Ġgenioglossus":6584,"Ġgenerally":6585,"1948":6586,"Laterally":6587,"Ġapart":6588,"Ġapical":6589,"Ġcoronoid":6590,"Ġlabium":6591,"Ġestab":6592,"Ġbuttock":6593,"Ġtriangles":6594,"imposed":6595,"terygoid":6596,"aker":6597,"Ġ95":6598,"Ġsternoclavicular":6599,"areolar":6600,"Ġcorpora":6601,"ĠExtensor":6602,"Ġpubococcygeus":6603,"Ġpuborectalis":6604,"Ġpalmaris":6605,"Extensor":6606,"Ġeduc":6607,"Ġcontinuity":6608,"Ġserves":6609,"Ġserious":6610,"ophageal":6611,"linically":6612,"Ġmusculature":6613,"170":6614,"duced":6615,"prof":6616,"illustration":6617,"Ġradiates":6618,"Ġmarginal":6619,"parotid":6620,"parietal":6621,"sublingual":6622,"Ġanastomotic":6623,"Ġtemporalis":6624,"Ġseparately":6625,"viewers":6626,"ondylolysis":6627,"Ġdiaphragmatic":6628,"Ġaccum":6629,"Ġaccommodate":6630,"Ġaccording":6631,"oulnar":6632,"Ġcalcaneonavicular":6633,"caud":6634,"caval":6635,"Ġbulges":6636,"Ġincludes":6637,"Ġcolumns":6638,"Ġmyotatic":6639,"antly":6640,"gray":6641,"Ġyaw":6642,"ĠSerratus":6643,"Ġsacroiliac":6644,"Ġsecre":6645,"Ġinfraorbital":6646,"Ġinfrapatellar":6647,"compression":6648,"compartments":6649,"igures":6650,"Ġvarious":6651,"Ġvariation":6652,"Ġvariations":6653,"Ġcontractions":6654,"flexed":6655,"within":6656,"Ġmalleoli":6657,"etabular":6658,"ĠImage":6659,"Ġpleurae":6660,"abdomen":6661,"abdominis":6662,"Ġadducted":6663,"Ġtesting":6664,"Ġbulbospongiosus":6665,"Ġquadrant":6666,"Ġquadriceps":6667,"Ġ2000":6668,"rectus":6669,"testinal":6670,"Ġascend":6671,"Ġthickness":6672,"Ġcubonavicular":6673,"Ġhorns":6674,"Ġdistribut":6675,"Ġconnected":6676,"Ġbounding":6677,"Ġboundary":6678,"Ġboundaries":6679,"Ġerection":6680,"Innervationa":6681,"ypical":6682,"Ġoutside":6683,"Ġoutflow":6684,"Ġsign":6685,"Ġsignific":6686,"Ġpreser":6687,"Ġinvolve":6688,"ephaly":6689,"ephalon":6690,"Ġlevatores":6691,"Ġlongitudinally":6692,"Ġsoleal":6693,"Ġneuron":6694,"Ġneurocranium":6695,"Ġtrapezoid":6696,"ioanal":6697,"indic":6698,"ĠSubcutaneous":6699,"Ġconvey":6700,"Ġchange":6701,"Ġblocks":6702,"Ġblockage":6703,"Ġpeeled":6704,"ĠClinically":6705,"peritoneally":6706,"Ġterminale":6707,"Ġterminalis":6708,"condition":6709,"continu":6710,"Ġabducts":6711,"Ġcrura":6712,"Ġsurgery":6713,"Ġileocecal":6714,"Ġcoraco":6715,"Ġfreely":6716,"Ġossicles":6717,"encephalon":6718,"Ġpedicles":6719,"lammatory":6720,"ĠMassachusetts":6721,"ĠArticularis":6722,"Ġprovided":6723,"Ġcondyles":6724,"Ġretinacula":6725,"Ġchildhood":6726,"ĠPhila":6727,"Ġacts":6728,"Ġtherefore":6729,"Ġphotograph":6730,"Ġcaliber":6731,"ectorial":6732,"uneonavicular":6733,"Ġpersists":6734,"Ġcauda":6735,"Ġweakness":6736,"Abductor":6737,"Subclavian":6738,"ĠProfessor":6739,"Ġcompressed":6740,"Ġrotatores":6741,"Ġabsence":6742,"Ġabsorption":6743,"Ġimportance":6744,"Ġbleeding":6745,"Ġorifices":6746,"Longissimus":6747,"gery":6748,"longus":6749,"Ġdepresses":6750,"ĠSuprahyoid":6751,"ĠSuprascapular":6752,"Ġpathways":6753,"mohyoid":6754,"Ġstraight":6755,"Ġswallow":6756,"ĠUlnar":6757,"Ġknowledge":6758,"Supraorbital":6759,"auditory":6760,"ief":6761,"triangle":6762,"Ġmamm":6763,"Ġdamaging":6764,"ocolic":6765,"Ġunilaterally":6766,"Ġreflects":6767,"Midaxillary":6768,"twork":6769,"Ġpupillae":6770,"Ġchewing":6771,"Ġembry":6772,"Ġembedded":6773,"Ġarcades":6774,"ĠFlexor":6775,"Ġhelp":6776,"Ġacromioclavicular":6777,"Ġdrawn":6778,"Ġdraws":6779,"Ġdrawings":6780,"Ġadditional":6781,"itoba":6782,"plexuses":6783,"Ġmeans":6784,"ĠLayer":6785,"Ġaryepiglottic":6786,"Ġvulva":6787,"Ġleaves":6788,"Ġmusculotendinous":6789,"Medulla":6790,"metacarpal":6791,"surrou":6792,"sphenoid":6793,"radius":6794,"Ġdepression":6795,"anastomosing":6796,"ometacarpal":6797,"abilize":6798,"Ġvasocons":6799,"ĠEndoscopic":6800,"ĠSupport":6801,"segmental":6802,"pendicular":6803,"Ġencloses":6804,"frontalis":6805,"Ġuv":6806,"Ġutricle":6807,"Ġstrength":6808,"Ġtentorial":6809,"ĠSectional":6810,"Ġjejunal":6811,"ĠInfrahyoid":6812,"ĠOssicles":6813,"Direct":6814,"crosses":6815,"crossing":6816,"ruption":6817,"Ġiris":6818,"Ġpurple":6819,"Ġpurposes":6820,"Ġwinds":6821,"ĠDevelopment":6822,"ĠFootÃ¢":6823,"Ġlaceration":6824,"Ġlacerated":6825,"ĠPalate":6826,"ĠIntervertebral":6827,"ĠIntermediate":6828,"Ġcontracture":6829,"Ġposterolaterally":6830,"Ġdemarcated":6831,"Ġossified":6832,"Ġsimilarly":6833,"Trapezius":6834,"deltopectoral":6835,"delphia":6836,"ufficiency":6837,"Ġprominent":6838,"Ġprominence":6839,"ĠAcetabular":6840,"Ġinitially":6841,"ĠSternocostal":6842,"ongiosum":6843,"ĠUreter":6844,"ĠUrethra":6845,"Ġrhomb":6846,"Ġrhinorr":6847,"ĠValves":6848,"Ġsequence":6849,"Ġstudied":6850,"Ġincisor":6851,"Ġminimi":6852,"contrast":6853,"Ġtransmitted":6854,"Ġdorsiflexion":6855,"Actionsa":6856,"trochanteric":6857,"Ġsutures":6858,"rotator":6859,"ĠCarolina":6860,"hamate":6861,"Ġnecrosis":6862,"Ġnecessary":6863,"ĠDigital":6864,"Ġempty":6865,"Ġequina":6866,"ĠSurgery":6867,"ĠUrinary":6868,"viscera":6869,"Ġoccupy":6870,"Ġposteroinferiorly":6871,"Ġmaintaining":6872,"appendicular":6873,"Ġintroduction":6874,"separated":6875,"Ischial":6876,"MRIs":6877,"Palato":6878,"Tensor":6879,"biceps":6880,"eyeball":6881,"super":6882,"ventricle":6883,"istics":6884,"ĠTermin":6885,"anesthetized":6886,"ĠLobes":6887,"Ġhamstring":6888,"ĠInfection":6889,"ĠVestibulocochlear":6890,"Ġdetermine":6891,"lindrical":6892,"Thoracoabdominal":6893,"Ġindependently":6894,"ĠRotatores":6895,"Quadratus":6896,"About":6897,"Although":6898,"Lacrimal":6899,"Supratrochlear":6900,"persons":6901,"Ġensure":6902,"Ġolder":6903,"Ġslender":6904,"ĠApproximately":6905,"Ġcongenital":6906,"lacrimal":6907,"rophy":6908,"ĠLungs":6909,"ĠDivision":6910,"ĠSeminal":6911,"ĠGeorge":6912,"Ġarteriosum":6913,"Ġspondylolisthesis":6914,"Ġjaws":6915,"Ġrarely":6916,"Ġalternate":6917,"Ġobserved":6918,"Ġcolliculus":6919,"Ġshoulders":6920,"quetrum":6921,"narrowing":6922,"appearance":6923,"Serratus":6924,"burgh":6925,"degener":6926,"purple":6927,"Ġaffects":6928,"alignant":6929,"Ġsellae":6930,"Ġmatter":6931,"Ġtrochlea":6932,"Ġeminence":6933,"Ġlodge":6934,"ĠEsophagus":6935,"ĠPleura":6936,"Ġspeaking":6937,"Ġdiameter":6938,"ogenic":6939,"Ġacknowledge":6940,"alpingogram":6941,"Ġgradual":6942,"ophthalmos":6943,"ĠCharles":6944,"Ġidentify":6945,"Temporalis":6946,"Ġpyramidal":6947,"ĠLaryngoscopic":6948,"hemispheres":6949,"Appeared":6950,"Emerges":6951,"Zygomatic":6952,"eegan":6953,"hippocam":6954,"magnum":6955,"xygen":6956,"Ġaqueous":6957,"Ġoropharynx":6958,"Ġsinuatrial":6959,"Ġsugges":6960,"entous":6961,"Ġpowerful":6962,"rasions":6963,"Ġcremaster":6964,"Ġfeature":6965,"Ġinadvert":6966,"Ġinstrument":6967,"riocep":6968,"Ġtricuspid":6969,"attempt":6970,"ĠDentistry":6971,"Ġanteroinferiorly":6972,"dimensional":6973,"ĠBoileau":6974,"ĠSphenoid":6975,"ĠSpleen":6976,"Ġperianal":6977,"ysterosalpingogram":6978,"ipitofrontalis":6979,"ĠPhiladelphia":6980,"Ġrhinorrhea":6981,"%)":6982,"):":6983,"223":6984,"229":6985,"AA":6986,"AR":6987,"Ad":6988,"Ap":6989,"Ass":6990,"After":6991,"BÃ¢":6992,"Brainstem":6993,"Bucc":6994,"Basilar":6995,"CB":6996,"CP":6997,"Cl":6998,"Cal":6999,"Cur":7000,"Can":7001,"Coron":7002,"Corac":7003,"Cross":7004,"Clavicular":7005,"DV":7006,"Deltoid":7007,"Double":7008,"Floor":7009,"Fract":7010,"Femoral":7011,"Follow":7012,"Hams":7013,"Its":7014,"IAs":7015,"Joint":7016,"Lymp":7017,"Location":7018,"Lumbricals":7019,"Large":7020,"Ma":7021,"Muc":7022,"Mental":7023,"Nas":7024,"Nucleus":7025,"Numerous":7026,"PA":7027,"Pect":7028,"Pons":7029,"Popliteal":7030,"Palatine":7031,"Rupture":7032,"SA":7033,"Section":7034,"Second":7035,"Sinai":7036,"Stimulation":7037,"Thy":7038,"Teres":7039,"UHN":7040,"Usually":7041,"Visible":7042,"ati":7043,"air":7044,"azygos":7045,"bes":7046,"ban":7047,"bul":7048,"burs":7049,"bitis":7050,"both":7051,"bilateral":7052,"block":7053,"brainstem":7054,"birth":7055,"brachialis":7056,"borders":7057,"barium":7058,"bicularis":7059,"cin":7060,"cto":7061,"contents":7062,"cut":7063,"cule":7064,"cranium":7065,"course":7066,"clavicle":7067,"cardiac":7068,"cofemoral":7069,"clavius":7070,"des":7071,"ding":7072,"dep":7073,"det":7074,"drainage":7075,"dark":7076,"draw":7077,"drooping":7078,"eight":7079,"elastic":7080,"fix":7081,"fluid":7082,"fold":7083,"filum":7084,"filled":7085,"fascial":7086,"fovea":7087,"go":7088,"gu":7089,"gla":7090,"gan":7091,"gut":7092,"giv":7093,"grow":7094,"genital":7095,"green":7096,"ho":7097,"hib":7098,"hallux":7099,"hysterosalpingogram":7100,"iet":7101,"junction":7102,"jugular":7103,"ki":7104,"ks":7105,"ked":7106,"ld":7107,"lope":7108,"lumbosacral":7109,"male":7110,"mening":7111,"menis":7112,"mastoid":7113,"movement":7114,"nis":7115,"nid":7116,"nowled":7117,"normally":7118,"natal":7119,"oil":7120,"odi":7121,"oft":7122,"ohypogastric":7123,"oarthri":7124,"py":7125,"pic":7126,"pup":7127,"pap":7128,"pite":7129,"pars":7130,"plan":7131,"passes":7132,"pressure":7133,"pato":7134,"perex":7135,"pometacarpal":7136,"rus":7137,"surfaces":7138,"sagittal":7139,"skin":7140,"sacral":7141,"synd":7142,"saphenous":7143,"second":7144,"sacro":7145,"tack":7146,"tongue":7147,"tbook":7148,"treated":7149,"ught":7150,"uation":7151,"uising":7152,"vent":7153,"van":7154,"vocal":7155,"vious":7156,"wear":7157,"weight":7158,"year":7159,"years":7160,"Ġx":7161,"Ġuseful":7162,"Ġessential":7163,"era":7164,"erty":7165,"three":7166,"third":7167,"thenar":7168,"throsc":7169,"Ġam":7170,"Ġaro":7171,"Ġaid":7172,"Ġamb":7173,"Ġaud":7174,"Ġages":7175,"Ġamo":7176,"Ġaffect":7177,"Ġalimentary":7178,"inn":7179,"inor":7180,"inated":7181,"innerv":7182,"infer":7183,"inations":7184,"infra":7185,"individual":7186,"injury":7187,"investing":7188,"inburgh":7189,"aled":7190,"alveolar":7191,"alocalcanean":7192,"Ġour":7193,"Ġorange":7194,"Ġomohyoid":7195,"Ġoxygen":7196,"Ġtherapy":7197,"ora":7198,"ored":7199,"oran":7200,"orific":7201,"oropharyngeal":7202,"oratory":7203,"orectal":7204,"orld":7205,"ndÃ¢":7206,"leg":7207,"ley":7208,"leen":7209,"lebitis":7210,"arti":7211,"arning":7212,"arring":7213,"Ġsto":7214,"Ġsour":7215,"Ġsys":7216,"Ġsynap":7217,"Ġsamp":7218,"Ġsufficient":7219,"esophagus":7220,"esions":7221,"esophageal":7222,"enz":7223,"enes":7224,"tip":7225,"tially":7226,"tifer":7227,"Ġpes":7228,"Ġpha":7229,"Ġpons":7230,"Ġpelves":7231,"Ġpump":7232,"rad":7233,"radial":7234,"radiograph":7235,"ramus":7236,"ĠAortic":7237,"ĠAber":7238,"ĠASIS":7239,"ĠAlimentary":7240,"ĠAuricle":7241,"isthmus":7242,"Ġcent":7243,"Ġcri":7244,"Ġcir":7245,"Ġcement":7246,"Ġcrista":7247,"uss":7248,"tos":7249,"toward":7250,"together":7251,"Ġfall":7252,"Ġfalc":7253,"Ġfunnel":7254,"Ġfren":7255,"Ġfilled":7256,"Ġfuses":7257,"Ġfontanel":7258,"Ġbar":7259,"Ġbes":7260,"Ġbow":7261,"Ġbolus":7262,"Ġbind":7263,"Ġbene":7264,"Ġbacter":7265,"Ġbifid":7266,"Ġbalance":7267,"lacer":7268,"latissimus":7269,"Ġmight":7270,"Ġmalignant":7271,"Ġinv":7272,"Ġinward":7273,"Ġindirect":7274,"Ġinput":7275,"edition":7276,"edius":7277,"edema":7278,"ica":7279,"icle":7280,"ician":7281,"icted":7282,"root":7283,"rete":7284,"retra":7285,"regular":7286,"itates":7287,"itating":7288,"itantes":7289,"hel":7290,"entations":7291,"entuck":7292,"ostr":7293,"osity":7294,"osures":7295,"osynov":7296,"ĠCl":7297,"ĠCran":7298,"ĠCont":7299,"ĠCenter":7300,"ĠCirc":7301,"ĠCarpal":7302,"ĠCardi":7303,"ĠCosto":7304,"ĠCommon":7305,"ĠCurv":7306,"ĠConduction":7307,"ĠCuneonavicular":7308,"liquus":7309,"ĠTib":7310,"ĠTriceps":7311,"ĠTrigeminal":7312,"ĠTrac":7313,"ĠTentorial":7314,"ĠTalocalcanean":7315,"Ġds":7316,"Ġdes":7317,"Ġdent":7318,"Ġdec":7319,"Ġdys":7320,"Ġdental":7321,"acus":7322,"acem":7323,"acting":7324,"accessory":7325,"acarpophalangeal":7326,"aculty":7327,"hat":7328,"Ġtool":7329,"Ġtotal":7330,"ectom":7331,"anatomy":7332,"anterolateral":7333,"Ġnow":7334,"Ġnipp":7335,"Ġnostr":7336,"ulosis":7337,"ulohumeral":7338,"ulci":7339,"ash":7340,"ased":7341,"asseter":7342,"astole":7343,"uplic":7344,"upuy":7345,"ĠLac":7346,"ĠLong":7347,"ĠLex":7348,"ĠLingual":7349,"ĠLesser":7350,"ĠAnal":7351,"ĠAnteromedial":7352,"ident":7353,"amin":7354,"amic":7355,"Ġtone":7356,"Ġtest":7357,"Ġtail":7358,"Ġtaste":7359,"Ġtaper":7360,"Ġtectorial":7361,"ata":7362,"atlanto":7363,"attached":7364,"ĠDrain":7365,"ĠDiss":7366,"ĠDental":7367,"ĠDouble":7368,"ĠDuck":7369,"ĠDamage":7370,"Ġant":7371,"Ġanus":7372,"Ġanch":7373,"Ġanatom":7374,"Ġanser":7375,"Ġanterosuperior":7376,"Ġanococcy":7377,"Ġantrum":7378,"Ġending":7379,"Ġeverted":7380,"ĠMil":7381,"ĠMany":7382,"ĠMandible":7383,"ĠMovements":7384,"ĠMark":7385,"ĠMetatarsophalangeal":7386,"Ġarrangement":7387,"Ġartwork":7388,"chorda":7389,"oper":7390,"Ġreal":7391,"Ġreac":7392,"Ġread":7393,"Ġrelev":7394,"Ġrepa":7395,"Ġ13":7396,"Ġ116":7397,"cles":7398,"difficult":7399,"ticip":7400,"Ġsupratrochlear":7401,"Ġsupraglenoid":7402,"aber":7403,"abnormal":7404,"abella":7405,"Ġvision":7406,"ĠFace":7407,"ĠFlow":7408,"ĠForm":7409,"ĠFractures":7410,"ĠFourth":7411,"Ġlist":7412,"Ġgal":7413,"Ġgall":7414,"Ġgut":7415,"Ġgag":7416,"Ġgive":7417,"Ġglid":7418,"Ġgonads":7419,"adult":7420,"ĠBed":7421,"ĠBro":7422,"ĠBÃ¢":7423,"ĠBarium":7424,"ĠEli":7425,"ĠEye":7426,"ĠEmer":7427,"epicondyle":7428,"Ġlast":7429,"ĠSh":7430,"ĠSk":7431,"ĠSome":7432,"ĠSites":7433,"ĠSVC":7434,"ĠSouth":7435,"ĠSpermatic":7436,"ĠSnid":7437,"ĠGlans":7438,"ĠArch":7439,"ĠArens":7440,"ĠArrangement":7441,"ĠArches":7442,"Ġlight":7443,"allest":7444,"ĠAtlanto":7445,"205":7446,"ince":7447,"ĠPers":7448,"ĠPost":7449,"ĠPsoas":7450,"ĠPterygopalatine":7451,"ditional":7452,"inally":7453,"olfactory":7454,"olution":7455,"Ġsports":7456,"Ġspongiosum":7457,"sewhere":7458,"Ġleast":7459,"Ġlens":7460,"Ġlearning":7461,"Ġexist":7462,"Inc":7463,"Inguinal":7464,"Incis":7465,"Ġmaps":7466,"Ġmaking":7467,"Ġmakes":7468,"ocele":7469,"ociation":7470,"odorsal":7471,"Ġproper":7472,"Ġproject":7473,"Ġprobe":7474,"Ġproportion":7475,"Ġhearing":7476,"Ġheav":7477,"vices":7478,"tren":7479,"trun":7480,"trings":7481,"tructions":7482,"Ġattack":7483,"Ġhist":7484,"Ġhuman":7485,"apend":7486,"uture":7487,"ires":7488,"Ġbypass":7489,"Ġdisorder":7490,"Ġdiffer":7491,"Ġdivertic":7492,"Ġdilation":7493,"Ġdivide":7494,"Ġdiamond":7495,"Ġdilates":7496,"aches":7497,"ĠUHN":7498,"ĠUsually":7499,"Ġcome":7500,"Ġcomments":7501,"Ġonline":7502,"Ġrich":7503,"Ġrises":7504,"ceed":7505,"Ġ21":7506,"Ġ24":7507,"Ġ25":7508,"ĠmusclesÃ¢":7509,"Ġperistal":7510,"Ġperpendicular":7511,"Ġhaving":7512,"Ġwhom":7513,"Ġwhole":7514,"physes":7515,"ureter":7516,"fication":7517,"tendons":7518,"ĠHand":7519,"ĠHere":7520,"ĠHypoglossal":7521,"ĠHomolog":7522,"Ġcave":7523,"Ġcage":7524,"vertebra":7525,"asculature":7526,"Ġfibro":7527,"Ġcarry":7528,"Ġcarcin":7529,"Ġcarpometacarpal":7530,"ogni":7531,"axis":7532,"axilla":7533,"Ġscarring":7534,"Ġinterlock":7535,"Ġinterval":7536,"Ġinterarticular":7537,"Ġinterchondral":7538,"ystic":7539,"ysms":7540,"ĠInc":7541,"ĠInjury":7542,"traction":7543,"trauma":7544,"trason":7545,"ilium":7546,"iliotibial":7547,"Ġdeeply":7548,"ĠIli":7549,"Ġsubject":7550,"Ġsubtalar":7551,"Ġsubluxation":7552,"Ġregional":7553,"pert":7554,"perfor":7555,"performed":7556,"sections":7557,"ĠVM":7558,"ĠVentricular":7559,"ĠViscera":7560,"ĠVasculature":7561,"ĠNuchal":7562,"udent":7563,"ĠRoc":7564,"ĠRoss":7565,"Ġcanula":7566,"testis":7567,"Ġformations":7568,"Ġcomponent":7569,"Ġcontent":7570,"cerned":7571,"Ġresorb":7572,"Ġparac":7573,"Ġparanasal":7574,"Ġpararectal":7575,"Ġparasternal":7576,"nix":7577,"Ġmidway":7578,"Ġmidaxillary":7579,"Ġmidpalmar":7580,"Ġmidcarpal":7581,"Ġoblong":7582,"ĠOntar":7583,"ĠOphthalmic":7584,"ĠOcular":7585,"Ġconto":7586,"Ġconcerned":7587,"ĠPerineal":7588,"ĠPericardium":7589,"ĠPeritoneal":7590,"Ġtendinitis":7591,"Ġflexing":7592,"enters":7593,"enteries":7594,"embranous":7595,"Ġkey":7596,"Ġkyphosis":7597,"Ġremove":7598,"Ġitself":7599,"unders":7600,"rated":7601,"Ġinternally":7602,"Ġtwelfth":7603,"ograms":7604,"Ġplan":7605,"Ġplacing":7606,"Ġshare":7607,"Ġsharing":7608,"Ġcertain":7609,"Ġsaccule":7610,"Ġiliofemoral":7611,"Ġseven":7612,"result":7613,"tists":7614,"Ġsuperficially":7615,"Ġstab":7616,"Ġstages":7617,"Ġstroke":7618,"Ġarched":7619,"ticularly":7620,"elling":7621,"splen":7622,"spring":7623,"forming":7624,"formity":7625,"Ġaxes":7626,"hyd":7627,"hyperex":7628,"ompson":7629,"Ġupd":7630,"Ġulcer":7631,"Ġinflammatory":7632,"Ġvenosus":7633,"Ġcapillaries":7634,"Ġunable":7635,"Ġuncommon":7636,"Ġunpa":7637,"Ġunaffected":7638,"Ġunited":7639,"Ġuntreated":7640,"Ġincus":7641,"Ġdeath":7642,"obstruction":7643,"occluded":7644,"Ġtransversely":7645,"margin":7646,"Angular":7647,"Ġrelative":7648,"Ġviscerab":7649,"Ġexposures":7650,"ĠlayerÃ¢":7651,"arseness":7652,"Ġcoli":7653,"Ġcoarctation":7654,"zygomatic":7655,"Ġpharyng":7656,"Ġnodal":7657,"Ġnodule":7658,"Ġrotary":7659,"Ġmetatarsophalangeal":7660,"izes":7661,"ĠJW":7662,"ĠJCB":7663,"Ġhandle":7664,"Ġapplic":7665,"Ġapplied":7666,"Ġcerebri":7667,"Ġclar":7668,"Ġclos":7669,"Ġclot":7670,"Ġpecten":7671,"Ġpectineal":7672,"ext":7673,"Ġadmin":7674,"Ġsound":7675,"iled":7676,"Ġentered":7677,"ender":7678,"Ġorbits":7679,"Ġposterosuperiorly":7680,"ĠDeeper":7681,"Ġvagal":7682,"ticulate":7683,"Ġencirc":7684,"Ġchest":7685,"Ġchief":7686,"Ġconsist":7687,"Ġconstriction":7688,"alcaneal":7689,"large":7690,"Ġmeso":7691,"Ġmotion":7692,"Ġdiagon":7693,"rounded":7694,"102":7695,"tention":7696,"Ġextensors":7697,"Ġprem":7698,"Ġpretrache":7699,"Ġgeniculate":7700,"190":7701,"racts":7702,"Ġlevels":7703,"Ġhematoma":7704,"located":7705,"Ġlabel":7706,"Ġlabia":7707,"othoracic":7708,"Åĵp":7709,"tibio":7710,"rows":7711,"reases":7712,"Ġangiograms":7713,"Ġangiography":7714,"mediastinum":7715,"mediastinal":7716,"Ġ90":7717,"ĠArteriograms":7718,"Ġcore":7719,"Ġcorner":7720,"Ġcorrect":7721,"Ġdirections":7722,"elev":7723,"ĠExtent":7724,"ĠExcised":7725,"Ġpuberty":7726,"Ġability":7727,"Ġabrupt":7728,"Ġendoscopic":7729,"Ġendoscope":7730,"Ġserve":7731,"Ġserving":7732,"lined":7733,"lining":7734,"Ġexcitation":7735,"Ġelic":7736,"Ġelsewhere":7737,"process":7738,"prostatic":7739,"illustrations":7740,"rocartilaginous":7741,"158":7742,"paralysis":7743,"partially":7744,"particularly":7745,"posing":7746,"postsynaptic":7747,"liding":7748,"Ġsuprahyoid":7749,"Ġsupraspinous":7750,"Ġsupracondylar":7751,"409":7752,"submental":7753,"subtendinous":7754,"subarachnoid":7755,"subscapularis":7756,"scapula":7757,"scaphoid":7758,"Ġlobar":7759,"Ġimpaired":7760,"Ġdiscrete":7761,"occygeal":7762,"causes":7763,"cavities":7764,"ĠbackÃ¢":7765,"Ġmucos":7766,"Ġ190":7767,"Ġ1940":7768,"Ġ1943":7769,"Ġ1993":7770,"Ġassist":7771,"Ġassociation":7772,"Ġfracturing":7773,"Ġcolonoscopy":7774,"entially":7775,"Ġbasal":7776,"Ġdouble":7777,"Ġrecti":7778,"Ġrecoil":7779,"ĠAttachmenta":7780,"gnant":7781,"Ġquarter":7782,"Ġmyotomes":7783,"remature":7784,"Ġgray":7785,"Ġgraft":7786,"Arch":7787,"Arthur":7788,"Ġsemicircular":7789,"Ġsemilunar":7790,"volume":7791,"voluntary":7792,"abduct":7793,"eptor":7794,"Ġotherwise":7795,"Ġlactifer":7796,"compress":7797,"wallowing":7798,"Ġvaries":7799,"Ġvarie":7800,"Ġvaricose":7801,"Ġovaries":7802,"heads":7803,"Ġbulbs":7804,"Protr":7805,"Ġ2006":7806,"Ġurethrae":7807,"ĠKidneys":7808,"Ġinnervate":7809,"Ġinsert":7810,"redis":7811,"Ġhorizontally":7812,"Ġdistance":7813,"Ġdisturb":7814,"Ġconnections":7815,"699":7816,"Nerves":7817,"Ġrevealed":7818,"Ġpterygoids":7819,"ologic":7820,"ologically":7821,"Ġcommunication":7822,"Ġcommunicantes":7823,"Ġneurological":7824,"close":7825,"clera":7826,"iohyoid":7827,"iovertebral":7828,"inding":7829,"Ġsuperimposed":7830,"trasounds":7831,"Ġsegmented":7832,"Ġsegmentation":7833,"Ġvalveless":7834,"development":7835,"shown":7836,"Ġretropharyngeal":7837,"Ġoriginating":7838,"Compar":7839,"Compare":7840,"Ġcyst":7841,"latysma":7842,"valves":7843,"valuable":7844,"Ġdermatomal":7845,"Ġanterolaterally":7846,"Obliquus":7847,"Ġintraperitoneal":7848,"Ġileocolic":7849,"Ġreaches":7850,"pharyngotympanic":7851,"fully":7852,"Ġpedag":7853,"Ġdislocations":7854,"Ġdisplayed":7855,"Ġclinoid":7856,"Ġchildren":7857,"Ġchildbirth":7858,"Ġbifurcating":7859,"verticulosis":7860,"responsible":7861,"colon":7862,"supported":7863,"Ġphysical":7864,"Ġradiographs":7865,"Ġenlarges":7866,"Flexion":7867,"coun":7868,"cochlea":7869,"Ġslips":7870,"ĠAxis":7871,"ĠAxillary":7872,"Ġfunctional":7873,"ultifidus":7874,"Ġexamine":7875,"Forms":7876,"Geniculate":7877,"Subcutaneous":7878,"cancer":7879,"Ġoste":7880,"ĠDiagnostic":7881,"ophlebitis":7882,"ĠProximal":7883,"Ġcompressor":7884,"Ġcompresses":7885,"Ġcompressing":7886,"vaila":7887,"Ġbleed":7888,"Ġblends":7889,"Ġhernia":7890,"Ġherniation":7891,"Ġperiod":7892,"Ġperiarterial":7893,"Ġcontained":7894,"Longus":7895,"longitudinal":7896,"Ġpapilla":7897,"Ġpapillae":7898,"Ġcurve":7899,"ĠSupraspinatus":7900,"ĠParotid":7901,"ĠParasympathetic":7902,"Ġextravas":7903,"Ġextrahepatic":7904,"Ġpathological":7905,"passing":7906,"passage":7907,"enervation":7908,"ĠCollateral":7909,"ĠCompartment":7910,"Ġnarrowest":7911,"Ġtension":7912,"digital":7913,"ĠUltrasounds":7914,"Ġdefects":7915,"Plates":7916,"Suprascapular":7917,"Supraclavicular":7918,"baum":7919,"trition":7920,"triquetrum":7921,"aspects":7922,"Ġtypes":7923,"Ġtypical":7924,"Ġrecesses":7925,"Midclavicular":7926,"circulation":7927,"ganglionic":7928,"vagina":7929,"artilage":7930,"Ġinset":7931,"Ġinsufficiency":7932,"Ġtake":7933,"Ġelevated":7934,"ĠFlexed":7935,"Ġlikely":7936,"Ġcontinually":7937,"Ġparallels":7938,"ĠOrbit":7939,"specimens":7940,"Ġgroups":7941,"Ġapproaches":7942,"Ġlabyrinths":7943,"Adductor":7944,"mylohyoid":7945,"myotome":7946,"myocardial":7947,"Ġcenters":7948,"Ġleaving":7949,"thetizes":7950,"ĠboxÃ¢":7951,"Ġtermination":7952,"diaphragmatic":7953,"ails":7954,"berg":7955,"constrictor":7956,"metacarpophalangeal":7957,"Ġdepicted":7958,"anastomose":7959,"ĠEditor":7960,"ĠEdinburgh":7961,"ĠSupply":7962,"ĠSupplied":7963,"ĠPosteromedial":7964,"segment":7965,"Ġtravels":7966,"produced":7967,"Ġvariability":7968,"communicate":7969,"communicates":7970,"Ġloops":7971,"Ġexpansions":7972,"Peritoneum":7973,"correspond":7974,"cornea":7975,"septum":7976,"Ġavascular":7977,"Ġpouch":7978,"Ġchain":7979,"Ġbeds":7980,"Ġmerges":7981,"Ġreplacement":7982,"ĠForearm":7983,"Ġgemelli":7984,"Ġstretching":7985,"Ġepidural":7986,"Posteroinferior":7987,"bronchial":7988,"mucosa":7989,"vasion":7990,"Ġentry":7991,"Ġirregular":7992,"Ġabducent":7993,"organs":7994,"arches":7995,"Ġwidth":7996,"Ġwidens":7997,"Ġwidening":7998,"ĠManitoba":7999,"Ġdisappear":8000,"Ġpalatoglossus":8001,"Ġmetastases":8002,"Ġdemarcate":8003,"Ġchannel":8004,"Ġfails":8005,"ĠTemporalis":8006,"Ġnetworks":8007,"Iliacus":8008,"Region":8009,"cruciate":8010,"ugust":8011,"Ġzones":8012,"Ġridges":8013,"Ġadded":8014,"ĠAccessory":8015,"Ġcylindrical":8016,"Ġinitiates":8017,"recurrent":8018,"Ġgoiter":8019,"ĠScalp":8020,"ĠSternum":8021,"ĠSegments":8022,"ĠPectoral":8023,"ĠValvular":8024,"Ġsequentially":8025,"Ġincisors":8026,"Ġrelaxation":8027,"Ġminimal":8028,"contraction":8029,"ĠDiaphragmatic":8030,"Ġherniated":8031,"Ġdorsiflexed":8032,"pancreatic":8033,"supraspinatus":8034,"inflammation":8035,"Ġcreating":8036,"uriculotemporal":8037,"ĠTransrectal":8038,"Ġdense":8039,"Ġdenticulate":8040,"ĠDigestive":8041,"Ġanteromedially":8042,"Ġempties":8043,"Ġgait":8044,"Ġgiven":8045,"Infraorbital":8046,"ĠUrban":8047,"visceral":8048,"Ġcontributions":8049,"Ġapparent":8050,"ĠRadiocarpal":8051,"Ġpieces":8052,"Ġweeks":8053,"Ġperiphery":8054,"Palmar":8055,"Small":8056,"Tenses":8057,"bicipital":8058,"brevis":8059,"ventricles":8060,"Ġfeel":8061,"Ġfeet":8062,"Ġbuds":8063,"ĠCoils":8064,"ĠLobe":8065,"Ġeffects":8066,"ĠBronchi":8067,"ĠBronchograms":8068,"ĠSpondylolysis":8069,"ĠGrasp":8070,"Ġligation":8071,"ĠPortalÃ¢":8072,"Ġexperi":8073,"Ġhamstrings":8074,"Ġresponse":8075,"Ġoccurred":8076,"Ġoccurring":8077,"Ġcoats":8078,"lindness":8079,"Ġexception":8080,"Ġexceptions":8081,"Ġindependent":8082,"Ġpatient":8083,"Ġpatients":8084,"covering":8085,"Plantarflexes":8086,"sphincteric":8087,"Ġmetastasize":8088,"SDs":8089,"carotid":8090,"joining":8091,"ĠYork":8092,"Ġswollen":8093,"Ġfrequent":8094,"Ġfrequently":8095,"Ġbridges":8096,"lapse":8097,"Ġmechanism":8098,"ĠTendons":8099,"ĠTendinous":8100,"riptive":8101,"omediastinal":8102,"Ġanconeus":8103,"Ġanomaly":8104,"Ġanomalous":8105,"openings":8106,"ĠPregnant":8107,"Ġletter":8108,"Ġletters":8109,"Ġleading":8110,"Ġinterdigitate":8111,"ĠRibs":8112,"Ġtilts":8113,"Ġcontributes":8114,"Ġteaching":8115,"Ġstapes":8116,"Ġstapedius":8117,"Ġconsidered":8118,"roscopic":8119,"Styloid":8120,"Ġyounger":8121,"Helps":8122,"Imaging":8123,"Transversalis":8124,"Weakness":8125,"belly":8126,"brachii":8127,"bifurcation":8128,"dorsi":8129,"facet":8130,"horizontal":8131,"pulled":8132,"pronator":8133,"rhosis":8134,"smooth":8135,"Ġoperation":8136,"Ġshaft":8137,"Ġmicro":8138,"Ġmoder":8139,"accompany":8140,"ĠDescent":8141,"neurovascular":8142,"ephric":8143,"ĠSupination":8144,"Ġpropriocep":8145,"ĠInstitute":8146,"Ġradicular":8147,"Ġrods":8148,"Ġobtained":8149,"Ġobstructed":8150,"Ġtenderness":8151,"Ġtrabeculae":8152,"Ġexpanded":8153,"Ġadvanced":8154,"Ġbreaks":8155,"connecting":8156,"Ġfasciculus":8157,"Ġostia":8158,"Perforating":8159,"Ġelectronic":8160,"skeleton":8161,"Elevate":8162,"Occipital":8163,"Supplies":8164,"coracoid":8165,"demonstra":8166,"tube":8167,"warzen":8168,"Ġampulla":8169,"Ġsimple":8170,"Ġstimuli":8171,"Ġsymptoms":8172,"Ġcadavers":8173,"Ġfalx":8174,"lapses":8175,"ĠCruciate":8176,"ĠTopography":8177,"Ġdriven":8178,"temporomandibular":8179,"ascending":8180,"Ġtechni":8181,"otalar":8182,"opaque":8183,"ophyseal":8184,"directed":8185,"epidural":8186,"epicondylar":8187,"ĠScheme":8188,"ĠScience":8189,"Ġextrem":8190,"Ġruptured":8191,"Ġinterpret":8192,"ĠIleocecal":8193,"ĠVertebrae":8194,"Ġrestricted":8195,"Ġiliopsoas":8196,"resistance":8197,"Ġtrigone":8198,"Ġaxioapend":8199,"Ġdegenerative":8200,"Ġportocaval":8201,"ĠJohn":8202,"Ġcerebrospinal":8203,"Ġgenitofemoral":8204,"Ġyawning":8205,"Ġdistributed":8206,"Ġsignificantly":8207,"indicated":8208,"Ġcoracoacromial":8209,"Ġmammillary":8210,"Ġembryonic":8211,"metacarpals":8212,"ĠSupporting":8213,"Ġuvula":8214,"Ġinadvertently":8215,"Aponeurosis":8216,"Assists":8217,"Coracobrachialis":8218,"Crosses":8219,"DVR":8220,"Fracture":8221,"Hamstring":8222,"Lymphatic":8223,"Major":8224,"Pectoralis":8225,"Thyro":8226,"oarthritis":8227,"pupillae":8228,"Ġarose":8229,"Ġambig":8230,"Ġauditory":8231,"Ġamount":8232,"orange":8233,"Ġsystole":8234,"Ġphase":8235,"ĠAberrant":8236,"Ġcentrum":8237,"Ġcirrhosis":8238,"Ġfalciform":8239,"Ġfrenulum":8240,"entucky":8241,"osynovitis":8242,"ĠCraniovertebral":8243,"ĠCostovertebral":8244,"ĠCurvatures":8245,"ĠTrachea":8246,"acemaker":8247,"Ġnipple":8248,"upuytren":8249,"Ġtapering":8250,"Ġanococcygeal":8251,"Ġrepair":8252,"ĠSniderman":8253,"ĠArenson":8254,"ĠPersaud":8255,"ĠPostnatal":8256,"Ġheavy":8257,"ĠHomologous":8258,"Ġinterlocking":8259,"trasonography":8260,"ĠOntario":8261,"hyperextension":8262,"Ġunpaired":8263,"Ġadminis":8264,"Ġencircling":8265,"Ġpretracheal":8266,"tibiotic":8267,"Ġlactiferous":8268,"Ġvarieties":8269,"vailable":8270,"Ġproprioception":8271,"Ġaxioapendicular":8272,"**":8273,"//":8274,"120":8275,"119":8276,"149":8277,"144":8278,"312":8279,"319":8280,"527":8281,"611":8282,"625":8283,"715":8284,"97":8285,"99":8286,"://":8287,"AD":8288,"AV":8289,"Are":8290,"Apex":8291,"Autonomic":8292,"ASIS":8293,"Auriculotemporal":8294,"By":8295,"Ble":8296,"Bic":8297,"Back":8298,"Blood":8299,"Burs":8300,"Both":8301,"Bound":8302,"Bodies":8303,"Ch":8304,"Co":8305,"Col":8306,"Cons":8307,"Crest":8308,"Clinically":8309,"Don":8310,"Dec":8311,"Dors":8312,"Dep":8313,"Department":8314,"Dorsum":8315,"Descending":8316,"Draw":8317,"Dupuytren":8318,"ER":8319,"EJV":8320,"Effect":8321,"Eding":8322,"FL":8323,"Four":8324,"Fibular":8325,"Five":8326,"Figure":8327,"Fractures":8328,"Faculty":8329,"GV":8330,"Gu":8331,"Ger":8332,"Grant":8333,"Gives":8334,"Guy":8335,"Green":8336,"Gonads":8337,"Glans":8338,"Gastrocnemius":8339,"Gliding":8340,"Humer":8341,"Hard":8342,"However":8343,"Hearing":8344,"Hepatic":8345,"IX":8346,"Ind":8347,"IJV":8348,"IPs":8349,"Irritation":8350,"Jos":8351,"Junction":8352,"Knowledge":8353,"Keegan":8354,"Kenz":8355,"LA":8356,"LS":8357,"La":8358,"Li":8359,"Loc":8360,"Laryn":8361,"Lingual":8362,"LCA":8363,"Little":8364,"Mc":8365,"Met":8366,"Mass":8367,"Mening":8368,"Much":8369,"Molar":8370,"Mandible":8371,"Minor":8372,"Masseter":8373,"NS":8374,"Nasal":8375,"Narrow":8376,"Nuchal":8377,"Neur":8378,"Of":8379,"One":8380,"Oval":8381,"Oelrich":8382,"PM":8383,"Pis":8384,"Pur":8385,"Pressure":8386,"Pudendal":8387,"Pubic":8388,"Popliteus":8389,"Pterygoid":8390,"Premature":8391,"Platysma":8392,"RS":8393,"Ra":8394,"Rh":8395,"Rec":8396,"RCA":8397,"SV":8398,"Sur":8399,"Sep":8400,"Surface":8401,"System":8402,"Structure":8403,"SCM":8404,"SVC":8405,"Sclera":8406,"Tip":8407,"Toronto":8408,"Tend":8409,"Triceps":8410,"Tuber":8411,"Tonic":8412,"Teeth":8413,"TIAs":8414,"Ur":8415,"University":8416,"Under":8417,"Umbilical":8418,"Ve":8419,"Vas":8420,"Via":8421,"Vocal":8422,"Vision":8423,"Vagus":8424,"Wil":8425,"Wide":8426,"West":8427,"ah":8428,"az":8429,"aur":8430,"ather":8431,"aff":8432,"away":8433,"avern":8434,"atively":8435,"auricle":8436,"aunders":8437,"bg":8438,"bon":8439,"bra":8440,"bed":8441,"bil":8442,"bas":8443,"bach":8444,"band":8445,"back":8446,"bund":8447,"blow":8448,"beat":8449,"bile":8450,"bearing":8451,"black":8452,"bottom":8453,"cy":8454,"cre":8455,"che":8456,"cones":8457,"cond":8458,"courtesy":8459,"chan":8460,"central":8461,"called":8462,"cept":8463,"cells":8464,"crest":8465,"cise":8466,"cephalic":8467,"clavipectoral":8468,"circle":8469,"cuate":8470,"cubital":8471,"cerebell":8472,"cartilages":8473,"clinically":8474,"cystic":8475,"do":8476,"dal":8477,"dec":8478,"day":8479,"dust":8480,"dise":8481,"duate":8482,"dorsum":8483,"dotted":8484,"drop":8485,"eu":8486,"eve":8487,"eff":8488,"efferent":8489,"elat":8490,"effect":8491,"face":8492,"fere":8493,"fibular":8494,"first":8495,"fail":8496,"fibularis":8497,"fractures":8498,"fragment":8499,"gy":8500,"gle":8501,"gic":8502,"gum":8503,"gid":8504,"grant":8505,"gments":8506,"gones":8507,"gree":8508,"gans":8509,"gulate":8510,"gency":8511,"group":8512,"glenoid":8513,"gastrocnemius":8514,"hous":8515,"high":8516,"hou":8517,"heres":8518,"iable":8519,"ift":8520,"iates":8521,"ivid":8522,"iomed":8523,"je":8524,"jo":8525,"jian":8526,"jected":8527,"jejun":8528,"ken":8529,"kam":8530,"kiew":8531,"kidneys":8532,"kyphosis":8533,"lw":8534,"lis":8535,"lla":8536,"locc":8537,"lton":8538,"lucent":8539,"lunate":8540,"lvan":8541,"mi":8542,"mont":8543,"max":8544,"main":8545,"must":8546,"molar":8547,"meatus":8548,"moclavicular":8549,"mobile":8550,"mission":8551,"multifidus":8552,"no":8553,"none":8554,"nate":8555,"niate":8556,"navicular":8557,"nants":8558,"naculum":8559,"otion":8560,"overview":8561,"oanteriorly":8562,"oarytenoid":8563,"ohamate":8564,"olacrimal":8565,"oarseness":8566,"ojejun":8567,"pat":8568,"pable":8569,"pod":8570,"pment":8571,"poss":8572,"pose":8573,"post":8574,"pread":8575,"psoas":8576,"primary":8577,"penet":8578,"plastic":8579,"pterion":8580,"primitive":8581,"ptosis":8582,"pneum":8583,"pterygoid":8584,"rone":8585,"rue":8586,"renal":8587,"rinding":8588,"sw":8589,"sic":8590,"sit":8591,"she":8592,"sha":8593,"shap":8594,"sÃ¢":8595,"sternal":8596,"such":8597,"some":8598,"sural":8599,"schematic":8600,"size":8601,"sign":8602,"symphysis":8603,"sensation":8604,"swelling":8605,"sudden":8606,"socket":8607,"stimulation":8608,"satlas":8609,"saddle":8610,"swallowing":8611,"tp":8612,"tone":8613,"tant":8614,"tunnel":8615,"torn":8616,"tributaries":8617,"tarsometatarsal":8618,"tonsillar":8619,"tortuous":8620,"ttp":8621,"uus":8622,"uit":8623,"uver":8624,"uffer":8625,"uild":8626,"uish":8627,"uitary":8628,"vus":8629,"vening":8630,"vuls":8631,"walled":8632,"weak":8633,"xes":8634,"xity":8635,"xorn":8636,"xtbook":8637,"yx":8638,"yoglossus":8639,"yseal":8640,"yellow":8641,"ylvan":8642,"zab":8643,"Ãĥ":8644,"Ġ+":8645,"Ġ/":8646,"Ġec":8647,"Ġri":8648,"Ġrou":8649,"Ġide":8650,"Ġvery":8651,"ĠQuad":8652,"ĠZygomatic":8653,"ert":8654,"erv":8655,"erature":8656,"erie":8657,"erectile":8658,"thin":8659,"thus":8660,"thro":8661,"thep":8662,"them":8663,"thral":8664,"thick":8665,"thoscope":8666,"thromb":8667,"Ġath":8668,"Ġali":8669,"Ġaim":8670,"Ġaqu":8671,"Ġavailable":8672,"inx":8673,"interior":8674,"inates":8675,"inant":8676,"invol":8677,"inability":8678,"intorsion":8679,"intestinal":8680,"ald":8681,"alak":8682,"almost":8683,"alene":8684,"Ġoto":8685,"Ġocular":8686,"Ġotitis":8687,"Ġthro":8688,"Ġtherap":8689,"Ġthrust":8690,"Ġoffic":8691,"Ġoffer":8692,"orec":8693,"orne":8694,"orner":8695,"ortions":8696,"ona":8697,"onus":8698,"onens":8699,"onitis":8700,"ontitis":8701,"ndmar":8702,"term":8703,"tering":8704,"terne":8705,"terated":8706,"termin":8707,"terectomy":8708,"tertiary":8709,"leys":8710,"lection":8711,"lease":8712,"leak":8713,"lections":8714,"leads":8715,"armp":8716,"arative":8717,"arginal":8718,"artos":8719,"Ġsen":8720,"Ġsil":8721,"Ġsom":8722,"Ġsag":8723,"Ġsyn":8724,"Ġsque":8725,"Ġswing":8726,"Ġsinuous":8727,"Ġslack":8728,"Ġsolitary":8729,"Ġstimulation":8730,"Ġslower":8731,"Ġslop":8732,"Ġsaddle":8733,"Ġsearch":8734,"Ġslope":8735,"Ġsuffer":8736,"Ġsterne":8737,"esis":8738,"esÃ¢":8739,"esthetic":8740,"escap":8741,"esho":8742,"enth":8743,"enia":8744,"enced":8745,"enns":8746,"encl":8747,"enign":8748,"enables":8749,"enbaum":8750,"ennate":8751,"tie":8752,"tise":8753,"titive":8754,"tivity":8755,"Ġpg":8756,"Ġpra":8757,"Ġpli":8758,"Ġpia":8759,"Ġpig":8760,"Ġpost":8761,"Ġpiv":8762,"Ġpunct":8763,"Ġportacaval":8764,"Ġprincipal":8765,"Ġpneum":8766,"rast":8767,"raction":8768,"raced":8769,"rack":8770,"raphe":8771,"ĠAnd":8772,"ĠAss":8773,"ĠAmer":8774,"ĠAsch":8775,"ĠActing":8776,"ĠAlab":8777,"ĠAbs":8778,"ĠAugust":8779,"isc":8780,"isch":8781,"isms":8782,"iscons":8783,"isville":8784,"Ġcone":8785,"Ġcate":8786,"Ġcast":8787,"Ġcrow":8788,"Ġclimb":8789,"Ġchemis":8790,"Ġcours":8791,"Ġcreases":8792,"using":8793,"usual":8794,"usae":8795,"ustrum":8796,"urni":8797,"urysm":8798,"Ġfla":8799,"Ġfri":8800,"Ġfine":8801,"Ġfans":8802,"Ġfles":8803,"Ġfiss":8804,"Ġfever":8805,"Ġfiel":8806,"Ġfovea":8807,"Ġfirm":8808,"Ġfigures":8809,"Ġfabella":8810,"Ġflocc":8811,"Ġbent":8812,"Ġball":8813,"Ġbip":8814,"Ġbrow":8815,"Ġbears":8816,"Ġbring":8817,"Ġblack":8818,"Ġbottom":8819,"Ġborne":8820,"lais":8821,"lace":8822,"lained":8823,"Ġmac":8824,"Ġmere":8825,"Ġmane":8826,"Ġmasses":8827,"Ġmatri":8828,"Ġmobile":8829,"Ġinver":8830,"Ġinves":8831,"Ġinvertebral":8832,"Ġinade":8833,"Ġinability":8834,"Ġinside":8835,"Ġindivid":8836,"Ġinvag":8837,"Ġindirectly":8838,"Ġinduced":8839,"Ġintestinal":8840,"Ġinhib":8841,"edÃ¢":8842,"educt":8843,"eductive":8844,"icz":8845,"icon":8846,"icitis":8847,"iculi":8848,"roved":8849,"roduodenal":8850,"rey":8851,"rend":8852,"rece":8853,"refer":8854,"related":8855,"replacement":8856,"reviewers":8857,"itlin":8858,"itorum":8859,"itonitis":8860,"hether":8861,"entle":8862,"entesis":8863,"osynaptic":8864,"ospinalis":8865,"ĠCro":8866,"ĠCap":8867,"ĠCates":8868,"ĠCell":8869,"ĠCereb":8870,"ĠCred":8871,"ĠCover":8872,"ĠCalcaneal":8873,"lix":8874,"lips":8875,"liths":8876,"ĠTE":8877,"ĠTract":8878,"ĠTorr":8879,"ĠTributaries":8880,"ĠType":8881,"ĠTeeth":8882,"Ġdom":8883,"Ġdel":8884,"Ġdens":8885,"Ġdog":8886,"Ġdull":8887,"Ġduoden":8888,"Ġdry":8889,"Ġdrin":8890,"Ġdark":8891,"Ġdroop":8892,"Ġdrooping":8893,"Ġdenervation":8894,"acc":8895,"accom":8896,"veled":8897,"hams":8898,"habil":8899,"Ġtop":8900,"Ġtoes":8901,"Ġtoun":8902,"Ġtough":8903,"Ġtoday":8904,"Ġtourni":8905,"ranged":8906,"rancis":8907,"ilt":8908,"ilus":8909,"illo":8910,"ilymph":8911,"ece":8912,"ecation":8913,"anatomical":8914,"anteromedial":8915,"anomalies":8916,"antebrachial":8917,"aniel":8918,"anorectal":8919,"anhyd":8920,"inge":8921,"ington":8922,"Ġnor":8923,"Ġnour":8924,"Ġnotic":8925,"Ġnail":8926,"Ġnext":8927,"tead":8928,"teeth":8929,"tember":8930,"ullar":8931,"ultrasound":8932,"ulna":8933,"ription":8934,"asp":8935,"asian":8936,"astication":8937,"asymmet":8938,"ums":8939,"umps":8940,"ummary":8941,"umcised":8942,"ĠLJ":8943,"ĠLou":8944,"ĠLocation":8945,"ĠAny":8946,"ĠAnatom":8947,"ĠAnular":8948,"ĠAnomal":8949,"ĠAnteroposterior":8950,"iduous":8951,"ama":8952,"ames":8953,"amination":8954,"ammary":8955,"amkiew":8956,"Ġtors":8957,"Ġtrough":8958,"Ġtones":8959,"Ġtunic":8960,"Ġtapp":8961,"Ġtarsometatarsal":8962,"Ġtortuous":8963,"Ġtonus":8964,"ĠWB":8965,"ĠWar":8966,"ĠWall":8967,"ĠWay":8968,"ĠWhere":8969,"ĠWinn":8970,"ĠWiscons":8971,"atry":8972,"attachments":8973,"oman":8974,"omohyoid":8975,"omfort":8976,"Ġwa":8977,"Ġwear":8978,"Ġwater":8979,"Ġwearing":8980,"Ġworld":8981,"arts":8982,"ĠWillis":8983,"ĠDuodenum":8984,"ĠDeductive":8985,"verticula":8986,"Ġanterosuperiorly":8987,"Ġanteroposterior":8988,"Ġantibiotic":8989,"Ġef":8990,"Ġever":8991,"Ġease":8992,"Ġeigh":8993,"Ġevid":8994,"Ġeight":8995,"Ġevent":8996,"ĠMG":8997,"ĠMS":8998,"ĠMc":8999,"ĠMar":9000,"ĠMun":9001,"ĠMuse":9002,"ĠMotor":9003,"ĠMandibular":9004,"ĠMission":9005,"ĠMembranous":9006,"Ġarrest":9007,"Ġarthri":9008,"Ġarranged":9009,"choroid":9010,"opened":9011,"opath":9012,"Ġrequ":9013,"Ġrender":9014,"Ġretrude":9015,"Ġreversed":9016,"dimp":9017,"different":9018,"diolus":9019,"dilated":9020,"diamond":9021,"diencephalon":9022,"inside":9023,"ĠLife":9024,"elogram":9025,"eleration":9026,"tomarginal":9027,"tick":9028,"tically":9029,"Ġsupination":9030,"near":9031,"ontinuous":9032,"abling":9033,"abolic":9034,"abrasions":9035,"Ġvom":9036,"Ġvib":9037,"Ġvortic":9038,"ĠFA":9039,"ĠFD":9040,"ĠFE":9041,"ĠFacial":9042,"ĠFibularis":9043,"ĠFinally":9044,"ĠFender":9045,"Ġlink":9046,"orsesho":9047,"atomas":9048,"Ġguber":9049,"Ġgood":9050,"Ġgelat":9051,"Ġgums":9052,"ading":9053,"advanc":9054,"additional":9055,"ĠBur":9056,"ĠBlack":9057,"ĠBifid":9058,"ĠEss":9059,"ĠEast":9060,"ĠEJV":9061,"eptic":9062,"epts":9063,"epted":9064,"epicardium":9065,"eptember":9066,"Ġlate":9067,"Ġlamb":9068,"Ġlamin":9069,"Ġlaxity":9070,"Ġlandmar":9071,"ĠTheir":9072,"ĠSA":9073,"ĠST":9074,"ĠSimp":9075,"ĠSomatic":9076,"ĠSever":9077,"ĠSkin":9078,"ĠSesamoid":9079,"ĠSingle":9080,"ĠSequ":9081,"ĠSulci":9082,"ĠSaunders":9083,"ĠSummary":9084,"ĠSeptember":9085,"emp":9086,"emin":9087,"emoved":9088,"ĠGree":9089,"ĠGyn":9090,"ĠGren":9091,"ĠGlossopharyngeal":9092,"ĠArm":9093,"ĠArt":9094,"ĠArmy":9095,"Ġlife":9096,"roma":9097,"romes":9098,"romammary":9099,"ĠAttrition":9100,"incally":9101,"inctive":9102,"incision":9103,"incomplete":9104,"lassic":9105,"essed":9106,"essors":9107,"2003":9108,"ĠPA":9109,"ĠPM":9110,"ĠPV":9111,"ĠPy":9112,"ĠPla":9113,"ĠPub":9114,"ĠPain":9115,"ĠPlexus":9116,"ĠPalp":9117,"ĠPrincip":9118,"ĠPrincipal":9119,"union":9120,"uncommon":9121,"unules":9122,"ectable":9123,"ectineal":9124,"ibulum":9125,"ubb":9126,"Ġforcing":9127,"Ġfornix":9128,"ette":9129,"Ġspurs":9130,"Ġspans":9131,"gends":9132,"seen":9133,"ternum":9134,"Ġaspirat":9135,"Ġasymmet":9136,"mperature":9137,"Ġexec":9138,"Ġexits":9139,"Ġextent":9140,"Ġexophthalmos":9141,"mbers":9142,"ationary":9143,"Intra":9144,"Initi":9145,"Inability":9146,"Inversion":9147,"ocular":9148,"ocke":9149,"Ġmediated":9150,"Ġmedullar":9151,"odine":9152,"Ġpros":9153,"Ġproble":9154,"Ġprolapse":9155,"Ġheard":9156,"Ġhepato":9157,"Ġhelix":9158,"vice":9159,"allst":9160,"allowing":9161,"lexion":9162,"Ġhar":9163,"Ġhow":9164,"Ġhits":9165,"Ġhood":9166,"Ġhope":9167,"Ġhinge":9168,"Ġhocke":9169,"apex":9170,"utine":9171,"irenal":9172,"Ġdisting":9173,"Ġdisruption":9174,"Ġdistention":9175,"talk":9176,"talocalcane":9177,"Ġorder":9178,"Ġdiffic":9179,"Ġdivert":9180,"Ġdifficult":9181,"Ġdiencephalon":9182,"Ġdiastole":9183,"ĠUro":9184,"ĠUnder":9185,"ĠUmbilical":9186,"vised":9187,"visible":9188,"Ġcommin":9189,"Ġcombined":9190,"Ġcomitantes":9191,"Ġrising":9192,"ceeding":9193,"cealed":9194,"Ġligamentous":9195,"imilar":9196,"Ġpartner":9197,"Ġpermit":9198,"Ġperitonitis":9199,"Ġhaustra":9200,"Ġhabit":9201,"anding":9202,"anderb":9203,"Ġwhist":9204,"Ġwhite":9205,"urethral":9206,"ficiency":9207,"pectineus":9208,"Ġ60":9209,"Ġ61":9210,"erson":9211,"ĠHer":9212,"ĠHerb":9213,"ĠHallux":9214,"ĠHaber":9215,"ĠHorner":9216,"lobec":9217,"loglossus":9218,"lobes":9219,"Ġcaught":9220,"Ġ31":9221,"ĠThus":9222,"ĠThrough":9223,"ĠThigh":9224,"ĠThompson":9225,"Ġfibrocartilaginous":9226,"ucasian":9227,"Ġcarina":9228,"ovary":9229,"ovarium":9230,"ovaginal":9231,"Ġinters":9232,"Ġinterpre":9233,"Ġinterming":9234,"Ġinteractive":9235,"Ġintersections":9236,"Ġinterfere":9237,"Ġinterlace":9238,"ysterectomy":9239,"Ġalter":9240,"Ġalar":9241,"ossif":9242,"agues":9243,"ĠIniti":9244,"ĠIncis":9245,"onsil":9246,"nermost":9247,"ipeg":9248,"ipuncture":9249,"trapez":9250,"iliohypogastric":9251,"Ġdeepest":9252,"month":9253,"months":9254,"ĠIts":9255,"ĠIrritation":9256,"Ġheadb":9257,"Ġheadache":9258,"Ġheadaches":9259,"Ġraise":9260,"Ġsubple":9261,"Ġsubdivid":9262,"Ġsubjects":9263,"Ġsubdivision":9264,"Ġsubmucous":9265,"Ġsubperitoneally":9266,"Ġsubfascial":9267,"Ġfemales":9268,"Ġfemora":9269,"aneurysm":9270,"sectional":9271,"ĠVar":9272,"ĠVerm":9273,"ĠVascular":9274,"ĠVanderb":9275,"ĠNe":9276,"ĠNot":9277,"ĠNeur":9278,"ĠNorth":9279,"ĠRP":9280,"ĠRadial":9281,"ĠRupture":9282,"ĠRoy":9283,"ĠRemoved":9284,"off":9285,"ofacial":9286,"Ġpalatal":9287,"Ġpalsy":9288,"Ġpassive":9289,"Ġcann":9290,"Ġformat":9291,"state":9292,"student":9293,"Ġroutine":9294,"Ġcompar":9295,"Ġcomplex":9296,"Ġcompose":9297,"Ġcomputer":9298,"Ġcompare":9299,"Ġcompact":9300,"Ġcomplic":9301,"Ġcompany":9302,"ĠHealth":9303,"Ġcontribution":9304,"Ġcontusion":9305,"Ġcontacting":9306,"cervic":9307,"ccid":9308,"Ġresection":9309,"Ġresemb":9310,"Ġresists":9311,"Ġresearch":9312,"Ġparticip":9313,"Ġbend":9314,"Ġbelie":9315,"tructed":9316,"tructors":9317,"ricia":9318,"ricothyroid":9319,"ximate":9320,"nium":9321,"Ġmidarm":9322,"Ġobstr":9323,"ĠOE":9324,"ĠOs":9325,"ĠOver":9326,"ĠOlfactory":9327,"ĠOste":9328,"ĠOelrich":9329,"Ġ80":9330,"Ġconus":9331,"Ġconical":9332,"Ġconform":9333,"Ġcontig":9334,"embry":9335,"Ġcolors":9336,"Ġcollapses":9337,"igenbaum":9338,"ygdal":9339,"Ġkne":9340,"Ġremoving":9341,"undibulum":9342,"rachus":9343,"astroduodenal":9344,"Ġtraction":9345,"Ġtrapped":9346,"atest":9347,"Ġplant":9348,"Ġplaces":9349,"Ġplacent":9350,"ference":9351,"Ġfaces":9352,"Ġfactors":9353,"Ġskill":9354,"Ġaction":9355,"Ġacquired":9356,"Ġsaccular":9357,"Ġilia":9358,"Ġiliocostal":9359,"Ġiliococcygeus":9360,"Ġsend":9361,"Ġsending":9362,"Ġtextbook":9363,"Ġtemperature":9364,"ĠcavityÃ¢":9365,"quad":9366,"quate":9367,"resh":9368,"respectively":9369,"Ġoccluded":9370,"Ġoccasionally":9371,"Ġductules":9372,"Ġgreen":9373,"Ġgreatest":9374,"Ġsinusoids":9375,"Ġstable":9376,"Ġstarting":9377,"Ġstabilize":9378,"Ġstarts":9379,"Ġstroma":9380,"Ġstationary":9381,"palm":9382,"palate":9383,"palato":9384,"palatini":9385,"palpable":9386,"spread":9387,"Ġcordis":9388,"Ġcordlike":9389,"Ġlayout":9390,"forms":9391,"Ġtriradi":9392,"Ġtrigon":9393,"Ġtripod":9394,"Ġtubular":9395,"ighter":9396,"ewhat":9397,"hypertension":9398,"Ġseptomarginal":9399,"Ġupward":9400,"Ġultrasonography":9401,"Ġinflated":9402,"Ġinfundibulum":9403,"Ġvenipuncture":9404,"Ġunit":9405,"Ġunits":9406,"Ġunco":9407,"Ġuncover":9408,"Ġunsupported":9409,"Ġunusual":9410,"Ġdorsally":9411,"Ġcanaliculi":9412,"people":9413,"Ġdeformity":9414,"Ġdegree":9415,"obasilar":9416,"occur":9417,"occup":9418,"occlusion":9419,"Ġpulses":9420,"Ġpulling":9421,"lavicles":9422,"Any":9423,"Anterolateral":9424,"Anterosuperior":9425,"Angle":9426,"runs":9427,"atores":9428,"Ġviscerocranium":9429,"Ġscapulohumeral":9430,"eating":9431,"Ġexplained":9432,"enings":9433,"iflexes":9434,"ifest":9435,"iflexion":9436,"Ġfollic":9437,"Ġhyd":9438,"Ġcough":9439,"Ġnodules":9440,"lymphatic":9441,"Ġobliques":9442,"tingling":9443,"Ġrotational":9444,"uterus":9445,"Ġmetal":9446,"Ġheartbeat":9447,"izin":9448,"izing":9449,"ĠJE":9450,"ĠJJ":9451,"ĠJoy":9452,"Ġapprec":9453,"ragement":9454,"Ġcerebrum":9455,"hemiazygos":9456,"hemorr":9457,"hematomas":9458,"ĠDrs":9459,"Ġrefers":9460,"Ġnasolacrimal":9461,"Ġretromammary":9462,"124":9463,"127":9464,"128":9465,"extend":9466,"exits":9467,"extended":9468,"extorsion":9469,"example":9470,"Ġadequ":9471,"Ġadheres":9472,"Ġadvice":9473,"Ġsolid":9474,"ances":9475,"Ġglandular":9476,"pier":9477,"piriformis":9478,"endocardial":9479,"served":9480,"Ġpositions":9481,"Ġenable":9482,"Ġengor":9483,"Ġenables":9484,"Ġencoun":9485,"Ġenabling":9486,"Ġconscious":9487,"capitis":9488,"Ġoverview":9489,"Ġoverlie":9490,"lenticular":9491,"Ġmesovarium":9492,"Ġmother":9493,"Ġmodified":9494,"Ġdiaphyses":9495,"100":9496,"101":9497,"104":9498,"105":9499,"107":9500,"ĠMedizin":9501,"Ġbronchogram":9502,"Ġbronchomediastinal":9503,"198":9504,"1933":9505,"1973":9506,"Ġcranially":9507,"Anteriorly":9508,"Superiormost":9509,"ively":9510,"localized":9511,"tumors":9512,"Ġcoronally":9513,"Ġlabii":9514,"Ġlaboratory":9515,"Ġalongside":9516,"othorax":9517,"ossei":9518,"Åĵf":9519,"Åĵout":9520,"Åĵarmp":9521,"tibi":9522,"tibia":9523,"tibiofibular":9524,"hancing":9525,"Ġtalocr":9526,"âĤ¬âĢ¢).":9527,"113":9528,"116":9529,"ought":9530,"ouragement":9531,"medius":9532,"superioris":9533,"iastina":9534,"area":9535,"areas":9536,"Ġcorn":9537,"Ġcorneal":9538,"ĠExit":9539,"ĠExtra":9540,"ribute":9541,"ributio":9542,"Ġpublish":9543,"Ġmind":9544,"Ġminutes":9545,"Ġcapsules":9546,"Extrinsic":9547,"Ġedges":9548,"Ġeditor":9549,"Ġcontinued":9550,"Ġcontinuing":9551,"Ġaponeuroses":9552,"luding":9553,"Ġplantarflexes":9554,"334":9555,"Ġpiriform":9556,"Ġexcel":9557,"Ġtracking":9558,"plant":9559,"plantar":9560,"Ġelder":9561,"Ġmaintains":9562,"171":9563,"173":9564,"174":9565,"179":9566,"ducer":9567,"protr":9568,"proximally":9569,"projects":9570,"provide":9571,"protuberance":9572,"proceed":9573,"Ġsurrounded":9574,"132":9575,"136":9576,"138":9577,"278":9578,"279":9579,"intermediate":9580,"intermuscular":9581,"interphalangeal":9582,"intervening":9583,"interossei":9584,"rocolic":9585,"parentheses":9586,"Ġpterygo":9587,"Ġpterygomandibular":9588,"Ġsupravesical":9589,"Ġsupraepicondylar":9590,"Ġvalgus":9591,"Ġvalgum":9592,"Ġinterosseus":9593,"suboccipital":9594,"subacromial":9595,"ligamentous":9596,"Ġlobules":9597,"232":9598,"235":9599,"Ġimproved":9600,"ards":9601,"arded":9602,"Ġarticulating":9603,"Ġdiscomfort":9604,"Ġdiscontinuous":9605,"ĠRead":9606,"ĠReviewers":9607,"occygeus":9608,"velopmental":9609,"491":9610,"499":9611,"Thus":9612,"Thoracic":9613,"Third":9614,"Ġindex":9615,"Ġindentations":9616,"Ġaccura":9617,"Ġaccident":9618,"Ġaccepted":9619,"Ġneed":9620,"Ġnever":9621,"290":9622,"301":9623,"309":9624,"Ġcalcaneofibular":9625,"246":9626,"362":9627,"364":9628,"Ġbackflow":9629,"Ġ1937":9630,"Ġ1939":9631,"Ġ1954":9632,"Ġ1980":9633,"Ġ1983":9634,"Ġassisting":9635,"Ġcolumnar":9636,"Ġima":9637,"Ġimmobile":9638,"Ġcutting":9639,"Ġbulge":9640,"Ġbulging":9641,"Ġcolonoscope":9642,"alpinx":9643,"Ġbasic":9644,"Ġdoor":9645,"Ġdoing":9646,"Ġrecto":9647,"minim":9648,"outside":9649,"Ġquick":9650,"Ġthyroidectomy":9651,"remain":9652,"Ġgratit":9653,"551":9654,"Arcuate":9655,"gramm":9656,"Ġyet":9657,"Ġyour":9658,"thesi":9659,"Ġsacrospinous":9660,"Ġdeveloping":9661,"Ġdevelopmental":9662,"ligamentum":9663,"280":9664,"352":9665,"Ġbellies":9666,"Ġlacunae":9667,"Ġinfracolic":9668,"Ġpositioned":9669,"appears":9670,"appearing":9671,"approach":9672,"Ġvarum":9673,"Ġvarices":9674,"iliacus":9675,"Ġcontracted":9676,"ĠeyelidÃ¢":9677,"flexor":9678,"flexion":9679,"typ":9680,"combined":9681,"headed":9682,"Ġtestes":9683,"Ġischioanal":9684,"Ġlymphatics":9685,"Ġindicating":9686,"682":9687,"683":9688,"688":9689,"709":9690,"Progressive":9691,"Ġ2004":9692,"rectum":9693,"Maintains":9694,"ĠKeegan":9695,"ĠKentucky":9696,"599":9697,"805":9698,"Ġthickens":9699,"Ġmeatuses":9700,"idespread":9701,"Ġdistorted":9702,"Ġconnection":9703,"cusps":9704,"wards":9705,"Ġeros":9706,"Ġerode":9707,"Innervationb":9708,"Ġshortly":9709,"fibro":9710,"thalamic":9711,"Ġoutpouch":9712,"Ġsigns":9713,"Ġinvoluntary":9714,"ultaneous":9715,"Ġcommunications":9716,"Ġsoleus":9717,"Ġsolely":9718,"Ġretract":9719,"Ġretraction":9720,"closure":9721,"ioappendicular":9722,"indings":9723,"independ":9724,"Ġsuperio":9725,"short":9726,"showing":9727,"sharing":9728,"venosum":9729,"ĠSublingual":9730,"Ġoriginate":9731,"kinje":9732,"ished":9733,"Ġblocked":9734,"Ġtransversaria":9735,"omedially":9736,"Ġforefoot":9737,"Ġauricles":9738,"Ġsecondarily":9739,"junct":9740,"valve":9741,"inacular":9742,"lectomy":9743,"peritoneum":9744,"Ġdigitals":9745,"Obstruction":9746,"conus":9747,"conve":9748,"converge":9749,"concave":9750,"Ġcostochondral":9751,"Ġfluids":9752,"Ġintraabdominal":9753,"Ġintravenous":9754,"Ġintracaps":9755,"Ġtransition":9756,"Ġtransmits":9757,"Ġtranslucent":9758,"Ġtransplant":9759,"Ġtransducer":9760,"Ġemerging":9761,"Ġpalpation":9762,"Ġpalpate":9763,"Ġbandlike":9764,"Ġreaching":9765,"Ġloading":9766,"ĠBased":9767,"ĠBasma":9768,"athletes":9769,"athleen":9770,"mitral":9771,"membranous":9772,"tubercle":9773,"arcades":9774,"encouragement":9775,"Ġdislocates":9776,"Ġclinician":9777,"Ġretinacular":9778,"Ġconstrictors":9779,"Ġextensions":9780,"Ġunderlies":9781,"Ġundergo":9782,"letters":9783,"Ġbroken":9784,"ĠPhoto":9785,"Ġallowed":9786,"Ġconcentric":9787,"ductus":9788,"Ġactual":9789,"Ġphoto":9790,"Ġcalf":9791,"Ġgastrocolic":9792,"Ġstudent":9793,"Ġenlarging":9794,"Ġpatterns":9795,"cknowled":9796,"cochlear":9797,"Ġsyndromes":9798,"ĠAxioappendicular":9799,"Ġexamined":9800,"Ġexaminations":9801,"Ġcaudal":9802,"Ġcaudally":9803,"Ġweaker":9804,"Ġweakly":9805,"Ġweakened":9806,"Ġbroader":9807,"Formed":9808,"Subcostal":9809,"Submandibular":9810,"Subclavius":9811,"canthus":9812,"Ġthoraco":9813,"Ġthoracoabdominal":9814,"ĠAllen":9815,"ĠAlber":9816,"Ġcricoarytenoid":9817,"limbs":9818,"acromioclavicular":9819,"ophrenic":9820,"Ġdiseased":9821,"phalanges":9822,"Ġschema":9823,"Ġscheme":9824,"spinalis":9825,"Ġabsorb":9826,"bending":9827,"before":9828,"patellofemoral":9829,"Ġblending":9830,"Ġmeniscofemoral":9831,"Ġsplenium":9832,"Ġreduce":9833,"Ġreduces":9834,"Ġperioste":9835,"Ġzygomaticotemporal":9836,"Ġmasseteric":9837,"IVC":9838,"gering":9839,"longer":9840,"Ġopposed":9841,"Ġopposition":9842,"articulates":9843,"Ġmanip":9844,"Ġmanifest":9845,"Ġdepressors":9846,"Ġtrochanteric":9847,"Ġsphenopalatine":9848,"Ġsphenomandibular":9849,"sequent":9850,"Ġextraction":9851,"Ġextraperitoneal":9852,"Ġextradural":9853,"Ġdissecting":9854,"commonly":9855,"Shoulder":9856,"become":9857,"displacement":9858,"passages":9859,"Ġstrap":9860,"Ġstrain":9861,"Ġstrands":9862,"Ġsagittally":9863,"ĠColor":9864,"ĠCollectively":9865,"ĠComparative":9866,"Ġnarrower":9867,"Ġnarrowed":9868,"digitation":9869,"digitorum":9870,"Intercostal":9871,"Interosseous":9872,"ircles":9873,"Ġresisting":9874,"Ġcolored":9875,"Ġdefecation":9876,"Ġoriented":9877,"Supraspinatus":9878,"audal":9879,"ctition":9880,"triangular":9881,"trigones":9882,"Ġmamillo":9883,"likely":9884,"atrium":9885,"ĠMyotatic":9886,"Ġrecession":9887,"ĠSchwarzen":9888,"Ġprofuse":9889,"cessively":9890,"Ġreflect":9891,"Ġreflection":9892,"Ġclosely":9893,"Ġmaxillae":9894,"Ġorganize":9895,"Ġorganization":9896,"Ġpresented":9897,"Ġstylomandibular":9898,"Continuous":9899,"Contralateral":9900,"Contraction":9901,"Midbrain":9902,"bruising":9903,"condyle":9904,"Ġpupillary":9905,"Ġcheck":9906,"Ġcuneatus":9907,"Ġinstructors":9908,"identification":9909,"Ġtakes":9910,"Ġtaking":9911,"Ġembraced":9912,"Ġeleventh":9913,"Ġprotrude":9914,"Ġheld":9915,"Ġscalenes":9916,"Ġcontinence":9917,"special":9918,"Ġhyperex":9919,"Ġhypophyseal":9920,"Ġgrouped":9921,"Ġtracheostomy":9922,"Heart":9923,"Heather":9924,"Parotid":9925,"Paralysis":9926,"Pararectal":9927,"mesenteries":9928,"waist":9929,"aracteristics":9930,"Ġpoints":9931,"Ġpronated":9932,"Ġdescription":9933,"Ġvesicle":9934,"Ġremained":9935,"Ġocclusions":9936,"Ġappearance":9937,"Ġterminate":9938,"Ġterminology":9939,"Ġmusculophrenic":9940,"Ġseverely":9941,"conscious":9942,"juries":9943,"metatarsal":9944,"node":9945,"nodal":9946,"surgeons":9947,"Ġsimultaneous":9948,"Ġpisohamate":9949,"radiocarpal":9950,"radioulnar":9951,"ĠChubb":9952,"ĠCharacteristics":9953,"Ġdepending":9954,"Ġdepends":9955,"ometrium":9956,"Ġhammer":9957,"Ġhamulus":9958,"ĠTherefore":9959,"perineumÃ¢":9960,"Ġtraveling":9961,"Ġappendicular":9962,"Ġappendices":9963,"Ġenclosing":9964,"Ġoverlaid":9965,"Ġoverlaps":9966,"Ġoverlapping":9967,"produces":9968,"Arteries":9969,"communicating":9970,"Ġlooping":9971,"Ġsaliva":9972,"correlation":9973,"corpora":9974,"Ġthyroarytenoid":9975,"Ġthyroglossal":9976,"Ġstethoscope":9977,"Ġpossibly":9978,"Ġchambers":9979,"Ġmerging":9980,"requency":9981,"Ġderive":9982,"Ġreplace":9983,"Ġsplenorenal":9984,"Ġsubcostales":9985,"Ġconditions":9986,"Ġstretches":9987,"Ġstretched":9988,"Ġdorsiflexes":9989,"Ġincisions":9990,"Ġmarks":9991,"Ġmyocardial":9992,"Ġgrasped":9993,"compartmentÃ¢":9994,"Diverticulosis":9995,"Posterolateral":9996,"Scalp":9997,"Spiral":9998,"Splanchnic":9999,"Semimembranosus":10000,"Sternothyroid":10001,"crossed":10002,"prevertebral":10003,"pregnancy":10004,"preser":10005,"scrotum":10006,"scopic":10007,"scalene":10008,"Ġirritation":10009,"orgia":10010,"Ġsuddenly":10011,"Ġpush":10012,"Ġpushing":10013,"Ġpurpose":10014,"Ġnutri":10015,"Ġnumbered":10016,"Ġwindow":10017,"ĠDean":10018,"ĠDevelopmental":10019,"Ġaneurysms":10020,"Ġvisualized":10021,"Ġvisualize":10022,"Ġvisualization":10023,"Ġgingiva":10024,"Ġgingival":10025,"ĠStretch":10026,"ĠStudents":10027,"Ġexcessively":10028,"Ġfibrosis":10029,"Ġpalatopharyngeal":10030,"Ġpalatopharyngeus":10031,"Ġpalatoglossal":10032,"Ġbeginning":10033,"Ġdeviates":10034,"Ġcharacteristics":10035,"Ġlocalized":10036,"Ġdemarcating":10037,"Ascending":10038,"Ġcuneiforms":10039,"Iliotibial":10040,"Moore":10041,"Rela":10042,"References":10043,"Rectum":10044,"Stylohyoid":10045,"Trauma":10046,"Traverses":10047,"crura":10048,"crural":10049,"coronally":10050,"iphoid":10051,"ipheral":10052,"means":10053,"rinceps":10054,"thoracoabdominal":10055,"Ġoutermost":10056,"Ġsixth":10057,"Ġflavum":10058,"Ġblows":10059,"recogni":10060,"reface":10061,"illedema":10062,"Ġtaenia":10063,"Ġelement":10064,"Ġelements":10065,"Ġgoose":10066,"Ġhooks":10067,"Ġholding":10068,"ĠValerie":10069,"Ġincisive":10070,"Ġrelaxed":10071,"Ġchoice":10072,"Ġreconstructions":10073,"Ġsuperolaterally":10074,"Ġretrogradely":10075,"Ġosseous":10076,"Ġdescribe":10077,"Retina":10078,"Retracts":10079,"Tibialis":10080,"centrically":10081,"females":10082,"supraclavicular":10083,"infection":10084,"orbit":10085,"Ġshapes":10086,"Ġsuture":10087,"Ġsutured":10088,"ĠAdult":10089,"ĠAdjunct":10090,"Ġcreated":10091,"labium":10092,"Ġindividuals":10093,"rotation":10094,"ĠCorti":10095,"ĠCorpus":10096,"ĠCarotid":10097,"ĠCarlton":10098,"ĠTransvaginal":10099,"acetabular":10100,"Ġwidely":10101,"Ġequal":10102,"ĠSurg":10103,"Ġlimited":10104,"Ġlimitation":10105,"Ġlimitans":10106,"Ġkeeps":10107,"Ġoccupies":10108,"Ġoccupied":10109,"ĠRadio":10110,"ĠRadiopaque":10111,"Ġelongation":10112,"Ġ1998":10113,"Ġyouth":10114,"appendix":10115,"appendicitis":10116,"Ġsuperomedially":10117,"Ġaccompanies":10118,"whereas":10119,"Ġintroduced":10120,"separates":10121,"Smell":10122,"breast":10123,"eyelid":10124,"fossaÃ¢":10125,"skull":10126,"sinuses":10127,"Ġsockets":10128,"Ġpylor":10129,"Ġpituitary":10130,"iskly":10131,"Ġclearly":10132,"ĠTermination":10133,"Ġdownward":10134,"Ġtouched":10135,"anesthetizes":10136,"omboids":10137,"Ġeffector":10138,"Ġejaculation":10139,"Ġ1886":10140,"insert":10141,"inserting":10142,"absent":10143,"abscesses":10144,"absorption":10145,"ĠSecondary":10146,"ĠGray":10147,"ĠGraduate":10148,"Ġligature":10149,"includes":10150,"olism":10151,"Ġforcibly":10152,"Ġexpert":10153,"Ġexpertise":10154,"Ġhairs":10155,"Ġcarried":10156,"ĠVestibule":10157,"Ġresponsible":10158,"Ġparavertebral":10159,"Ġparahippocam":10160,"ĠOptic":10161,"ĠOpened":10162,"Ġaccessibility":10163,"Ġdetermin":10164,"Thoracodorsal":10165,"coverings":10166,"Ġreducing":10167,"Ġcurvatures":10168,"Ġflattened":10169,"Ġmetastasizes":10170,"Laceration":10171,"Linea":10172,"Stabilizes":10173,"costobrachial":10174,"disturb":10175,"generated":10176,"herent":10177,"joined":10178,"person":10179,"sternum":10180,"sternocleidomastoid":10181,"sternoclavicular":10182,"Ġiodine":10183,"Ġensures":10184,"therefore":10185,"Ġold":10186,"Ġsafe":10187,"Ġsleeve":10188,"Ġslows":10189,"Ġslowly":10190,"Ġfills":10191,"Ġfilling":10192,"Ġbridge":10193,"lacunae":10194,"Ġmechanical":10195,"rophies":10196,"Ġtense":10197,"Ġtenosynovitis":10198,"ĠDistally":10199,"Ġancillaries":10200,"Ġreviewed":10201,"Ġreviewers":10202,"Ġgaps":10203,"ĠGeorgia":10204,"ĠPreece":10205,"Ġforceful":10206,"severe":10207,"several":10208,"severely":10209,"Ġexerts":10210,"Inflammation":10211,"Infections":10212,"Ġdilator":10213,"Ġdilators":10214,"Ġperforming":10215,"Ġinterdigitates":10216,"Ġalternately":10217,"Ġtilting":10218,"ĠOccipitofrontalis":10219,"Ġcolliculi":10220,"Ġteacher":10221,"Ġconsiderably":10222,"Ġdistinctly":10223,"Ġcrushing":10224,"Ġpersistent":10225,"Orbicularis":10226,"Opposite":10227,"Opponens":10228,"Patent":10229,"Patricia":10230,"Severe":10231,"Severance":10232,"Transversus":10233,"bifurcates":10234,"calcaneus":10235,"calcaneofibular":10236,"dorsiflexion":10237,"iocavern":10238,"lopia":10239,"small":10240,"stella":10241,"semispinalis":10242,"transversus":10243,"Ġroughened":10244,"Ġthrombosis":10245,"Ġsheets":10246,"Ġsucking":10247,"Ġslides":10248,"Ġsliding":10249,"tigative":10250,"Ġcrests":10251,"Ġbrings":10252,"Ġbriskly":10253,"Ġmonosynaptic":10254,"Ġmicroscopic":10255,"Ġmodels":10256,"relative":10257,"relationship":10258,"ĠCaitlin":10259,"accompan":10260,"umping":10261,"ĠLangland":10262,"ĠLanglais":10263,"ĠDescriptive":10264,"ĠMacKenz":10265,"Ġreinforced":10266,"Ġgrowth":10267,"ĠEnlargement":10268,"Ġprotect":10269,"Ġcommissure":10270,"Ġcommences":10271,"ĠIndies":10272,"Ġradical":10273,"Ġrows":10274,"Ġtrabecula":10275,"Ġfacilitate":10276,"Ġfacilitating":10277,"Ġlaryngoscopy":10278,"Ġlaryngocele":10279,"expression":10280,"Ġadvances":10281,"Ġencircles":10282,"Ġextensively":10283,"retroperitoneal":10284,"retropharyngeal":10285,"completely":10286,"continuously":10287,"Ġfasciculi":10288,"Ġgastroduodenal":10289,"Ġostium":10290,"dislocation":10291,"dislocations":10292,"skeletal":10293,"Ġcisterna":10294,"Ġrepresented":10295,"Distinctive":10296,"Distributio":10297,"Photograph":10298,"Pronates":10299,"Pronator":10300,"Sometimes":10301,"fingers":10302,"groove":10303,"numbered":10304,"Ġvertex":10305,"Ġpractical":10306,"Ġclaustrum":10307,"Ġclivus":10308,"Ġcingulum":10309,"Ġcingulate":10310,"Ġchyli":10311,"Ġcalcium":10312,"Ġfrog":10313,"Ġfreed":10314,"Ġfindings":10315,"Ġbisected":10316,"Ġmethods":10317,"Ġinspirationb":10318,"edication":10319,"ĠLeekam":10320,"ĠWhile":10321,"Ġelasticus":10322,"chiatry":10323,"Ġrepeated":10324,"Ġrepetitive":10325,"Ġviscus":10326,"ĠFeigenbaum":10327,"epiphysis":10328,"ĠScapular":10329,"emerge":10330,"ĠPancreas":10331,"ĠPancreatic":10332,"Ġspasm":10333,"Ġspasms":10334,"vestibular":10335,"vestibule":10336,"Ġdiplopia":10337,"Ġdiminishes":10338,"Ġdiminished":10339,"Ġconducting":10340,"Ġconsequence":10341,"Ġcolleagues":10342,"Ġtibiocalcanean":10343,"Ġtibiotalar":10344,"Ġdeficits":10345,"Ġdeficient":10346,"capsulated":10347,"Ġestablish":10348,"Ġestablished":10349,"Ġeducational":10350,"profundus":10351,"Ġaccumulate":10352,"caudal":10353,"Ġsecreted":10354,"ypicalÃ¢":10355,"Ġpreserve":10356,"continued":10357,"surrounds":10358,"surrounding":10359,"sphenoidal":10360,"Ġvasoconstriction":10361,"Ġvasoconstrictor":10362,"Ġrhomboid":10363,"Ġrhomboids":10364,"Palatoglossus":10365,"Palatopharyngeus":10366,"superolateral":10367,"superoposterior":10368,"ĠTerminology":10369,"degeneration":10370,"degenerative":10371,"hippocampus":10372,"Ġsuggestions":10373,"Adjacent":10374,"Buccal":10375,"Curves":10376,"Follows":10377,"Mucous":10378,"Nasociliary":10379,"Sectional":10380,"bursa":10381,"despite":10382,"details":10383,"drawings":10384,"fixed":10385,"glands":10386,"growth":10387,"meninges":10388,"meniscus":10389,"mastoiditis":10390,"odilat":10391,"often":10392,"syndrome":10393,"sacrotuberous":10394,"weighted":10395,"thirds":10396,"throscope":10397,"Ġamong":10398,"innervated":10399,"orifice":10400,"artite":10401,"Ġstout":10402,"Ġsource":10403,"Ġsynapse":10404,"Ġsampling":10405,"Ġcritical":10406,"Ġfontanelles":10407,"Ġbeside":10408,"Ġbowl":10409,"Ġbeneath":10410,"Ġbacteria":10411,"Ġinvade":10412,"retracted":10413,"ĠClincally":10414,"ĠContrast":10415,"ĠCircumflex":10416,"ĠTibiofibular":10417,"Ġdentate":10418,"Ġdecuss":10419,"Ġdysfunction":10420,"Ġtools":10421,"ectomies":10422,"Ġnostril":10423,"uplicated":10424,"ĠLexicon":10425,"aminectomies":10426,"ĠDraining":10427,"ĠDissector":10428,"ĠDuckwall":10429,"Ġantagon":10430,"Ġanserinus":10431,"ĠMilitary":10432,"ĠMarkings":10433,"Ġreadily":10434,"Ġrelevance":10435,"Ġ1168":10436,"ĠFormations":10437,"Ġlisted":10438,"Ġgalli":10439,"Ġglide":10440,"ĠBrody":10441,"ĠEmeritus":10442,"ĠShort":10443,"Increased":10444,"Incisor":10445,"Ġprojecting":10446,"Ġproportionately":10447,"trunk":10448,"Ġhistory":10449,"Ġdiverticulum":10450,"Ġperistalsis":10451,"Ġcarcinoma":10452,"ĠIliolumbar":10453,"pertrophy":10454,"ĠRoche":10455,"Ġparacolic":10456,"Ġoblongata":10457,"Ġcontour":10458,"Ġplanes":10459,"Ġseventh":10460,"splenic":10461,"Ġulceration":10462,"Ġpharyngobasilar":10463,"Ġapplication":10464,"Ġclarity":10465,"Ġcloser":10466,"Ġdiagonal":10467,"Ġpremolars":10468,"elevate":10469,"Ġelicited":10470,"Ġmucosal":10471,"Ġquarters":10472,"abducted":10473,"redisposing":10474,"Comparatively":10475,"Ġpedagogical":10476,"Ġextravasation":10477,"Ġexperience":10478,"Ġmicrotrauma":10479,"Ġmoderates":10480,"demonstrating":10481,"Ġtechnique":10482,"Ġextremely":10483,"Ġambiguus":10484,"Area":10485,"Biceps":10486,"Collateral":10487,"Donald":10488,"Dorsiflexes":10489,"Draws":10490,"ERCP":10491,"Edinger":10492,"Guasp":10493,"Gerdy":10494,"Guyon":10495,"Latissimus":10496,"Located":10497,"Metatarsal":10498,"Meningeal":10499,"Pisiform":10500,"Purkinje":10501,"Radiograph":10502,"Recurrent":10503,"Separ":10504,"Tendons":10505,"Tuberosity":10506,"Urinary":10507,"Vein":10508,"Westphal":10509,"auricular":10510,"bgott":10511,"cerebellar":10512,"disease":10513,"eutic":10514,"effective":10515,"failure":10516,"grantsatlas":10517,"houette":10518,"iomedical":10519,"lww":10520,"maximus":10521,"maintain":10522,"overviews":10523,"ojejunal":10524,"possible":10525,"situ":10526,"shearing":10527,"shaft":10528,"shape":10529,"uishing":10530,"vulsive":10531,"ylvania":10532,"zabeth":10533,"Ġeccentrically":10534,"Ġrigid":10535,"thepoint":10536,"Ġalign":10537,"Ġaqueduct":10538,"Ġtherapeutic":10539,"oreceptor":10540,"Ġsilhouette":10541,"Ġsomewhat":10542,"Ġsquee":10543,"ennsylvania":10544,"Ġpractition":10545,"Ġpivot":10546,"ĠAssociated":10547,"ĠAlabama":10548,"ĠAbsence":10549,"ĠAugusta":10550,"Ġcategor":10551,"Ġcrowns":10552,"Ġclimbing":10553,"Ġchemistry":10554,"Ġcoursing":10555,"Ġfleshy":10556,"Ġfissures":10557,"Ġfield":10558,"Ġbrown":10559,"Ġmaneuver":10560,"Ġmatrix":10561,"Ġinverts":10562,"Ġinvestigative":10563,"Ġinadequate":10564,"ĠCerebrum":10565,"ĠCredits":10566,"ĠTorrent":10567,"Ġduodenojejunal":10568,"Ġdroops":10569,"accommodate":10570,"hamstring":10571,"habilitation":10572,"Ġtounge":10573,"Ġtourniquet":10574,"anhydrosis":10575,"Ġnotice":10576,"ĠLouisville":10577,"ĠAnomalous":10578,"amkiewicz":10579,"Ġtorsion":10580,"Ġtunica":10581,"Ġtapping":10582,"ĠWayne":10583,"ĠWinnipeg":10584,"ĠWisconsin":10585,"Ġantibiotics":10586,"Ġeighth":10587,"ĠMunich":10588,"ĠMuseum":10589,"Ġarthritis":10590,"Ġvorticose":10591,"orseshoe":10592,"Ġgubernaculum":10593,"Ġgelatinous":10594,"ĠEssential":10595,"Ġlambd":10596,"ĠGreek":10597,"ĠGynec":10598,"ĠGrenada":10599,"ĠPrinciples":10600,"Ġaspirated":10601,"Ġmedullaris":10602,"Ġproblem":10603,"allstones":10604,"Ġhockey":10605,"Ġdistinguishing":10606,"talocalcaneonavicular":10607,"Ġdifficulty":10608,"Ġcomminuted":10609,"ĠHerbener":10610,"ucasians":10611,"Ġinterpreted":10612,"trapezium":10613,"Ġsubpleural":10614,"Ġsubfascially":10615,"ĠVermont":10616,"ĠVanderbilt":10617,"ĠRoyal":10618,"ygdaloid":10619,"Ġplantae":10620,"Ġplacenta":10621,"Ġiliocostalis":10622,"Ġtextbooks":10623,"Ġtriradiate":10624,"Ġtrigonum":10625,"Ġuncovered":10626,"Ġcoughing":10627,"Ġadequate":10628,"Ġencountered":10629,"Åĵarmpit":10630,"Ġtalocrural":10631,"Ġelderly":10632,"Ġgratitude":10633,"grammatic":10634,"Ġoutpouching":10635,"Ġintracapsular":10636,"ĠBasmajian":10637,"cknowledgments":10638,"ĠAlberta":10639,"Ġabsorbed":10640,"Ġmamillothalamic":10641,"Ġhyperextended":10642,"recognized":10643,"Ġtaeniae":10644,"Ġparahippocampal":10645,"disturbance":10646,"iocavernosus":10647,"stellate":10648,"ĠMacKenzie":10649}